{
  "src_word2id": {
    "<pad>": 0,
    "<s>": 1,
    "</s>": 2,
    "<unk>": 3,
    ",": 4,
    ".": 5,
    "\u2581\u13a0\u13b4": 6,
    "\u2581\u13be\u13cd\u13a9": 7,
    ";": 8,
    "\u13c3": 9,
    "\u2581\u13af\u13a0": 10,
    "\u2581\u13a8\u13d2": 11,
    "\u2581": 12,
    "\u13a2": 13,
    "\u2581\u13a5\u13dd": 14,
    "\u2581\u13a8\u13d2\u13a2": 15,
    "\u13f0\u13c3": 16,
    "\u13a9": 17,
    "\u2581\u13a8\u13ce\u13cd\u13d7": 18,
    "\u2581\u13a4\u13c1\u13b3\u13c5\u13af": 19,
    "\u2581\u13c3\u13b4": 20,
    "\u2581\u13a4": 21,
    "?": 22,
    "\u2581\u13a0": 23,
    "\u2581\u13f4\u13eb": 24,
    "\u13c9": 25,
    "\u13d7": 26,
    "\u13af": 27,
    "\u2581\u13a9\u13b6": 28,
    "\u2581\u13be\u13cd\u13c9": 29,
    "\u2581\u13a2\u13f3\u13cd\u13d7": 30,
    "\u2581\u13be\u13bf": 31,
    "\u2581\u13be\u13cd\u13a9\u13ef": 32,
    "\u2060": 33,
    "\u2581\u13a0\u13ce\u13c3": 34,
    "\u2581\u13a0\u13f4": 35,
    "\u13ad": 36,
    "\u2581\u13be": 37,
    "\u2581\u13f1\u13a9": 38,
    "-": 39,
    "\u2581\u13e5\u13a9": 40,
    "\u2581\u13f1\u13b0\u13e9": 41,
    "\u2581\u13aa\u13b1\u13cd\u13d7": 42,
    "\u2581\u13c2\u13a6\u13db": 43,
    "\u2581\u13c2\u13af": 44,
    "\u2581\u13a2\u13a6": 45,
    "\u2581\u13a4\u13ac\u13eb\u13f3\u13af": 46,
    "\u2581\u13e5\u13cc": 47,
    "\u2581\u13c2\u13a8\u13d2\u13be": 48,
    "\u13f1": 49,
    "\u2581\u201c": 50,
    "\u13be": 51,
    "\u13cd\u13a9\u13c2": 52,
    "\u13db": 53,
    "\u2581\u13a3\u13cd\u13db": 54,
    "\u2581\u13af\u13a0\u13c3": 55,
    "\u13cd\u13d7": 56,
    "\u2581\u13a4\u13ea\u13e5": 57,
    "\u2581\u13e7": 58,
    "\u2581\u13d7": 59,
    "\u2581\u13a2\u13f3\u13c3": 60,
    "\u2581\u13be\u13cd\u13a9\u13c3": 61,
    "\u2581\u13e7\u13ea\u13e5": 62,
    "\u2581\u13a6\u13b6\u13c1\u13db": 63,
    "\u13d3": 64,
    "\u2581\u13c4\u13ea\u13ce\u13a2": 65,
    "\u2581\u13bf\u13c9": 66,
    "\u2581\u13a0\u13c2": 67,
    "\u2581\u13a1\u13b6\u13af": 68,
    "\u2581\u13de\u13cd\u13d7": 69,
    "\u2581\u13e5": 70,
    "\u2581\u13a8\u13cd\u13d7": 71,
    "\u2581\u13bf\u13c9\u13c3": 72,
    "\u2581\u13a4\u13f2": 73,
    "\u13a6": 74,
    "\u2581\u13a4\u13db\u13c1": 75,
    "\u2581\u13e3": 76,
    "\u2581\u13a4\u13e3\u13d8": 77,
    "\u2581\u13a0\u13e5\u13b8": 78,
    "\u2581\u201d": 79,
    "\u2581\u13f1": 80,
    "\u2581\u13da": 81,
    "\u2581\u13eb\u13b5\u13bb": 82,
    ",\u201d": 83,
    "\u2581\u13be\u13af\u13f3": 84,
    "\u2581\u13c2\u13a6\u13a5": 85,
    "\u2581\u13ac\u13c2\u13a8\u13d2": 86,
    "\u13c2": 87,
    "\u2581\u13a0\u13cd\u13a6\u13ef": 88,
    "\u2581\u13a6\u13b8\u13c9\u13d7\u13f3": 89,
    "\u2581\u13ac\u13c2\u13f3\u13c9": 90,
    "\u2581\u13c4\u13cd\u13db": 91,
    "\u13c5": 92,
    "\u2581\u13a6\u13d9": 93,
    "\u2581\u13a7\u13c3\u13ae\u13db": 94,
    "\u2581\u13a1\u13af": 95,
    "\u2581\u13a4\u13e9\u13d2": 96,
    "\u2581\u13a0\u13c1\u13af": 97,
    "\u2581\u13a6\u13b8\u13b3\u13d7": 98,
    "\u2581\u13a0\u13f0\u13b5": 99,
    "\u2581\u13a0\u13d5\u13b8": 100,
    "\u2581\u13a8\u13ce\u13a2": 101,
    "\u2581\u13a4\u13e4\u13b5": 102,
    "\u2581\u13f0\u13b5": 103,
    "\u2581\u13cc\u13c9": 104,
    "\u2581\u13a4\u13e4\u13b5\u13a6": 105,
    "\u13a8": 106,
    "\u2581\u13a0\u13b9": 107,
    "\u13cf": 108,
    "\u2581\u13a2\u13e3": 109,
    "\u2581\u13a4\u13c2": 110,
    "\u13b5": 111,
    "\u2581\u13a2\u13f4\u13db": 112,
    "\u13b8": 113,
    "\u13d7\u13f1": 114,
    "\u2581\u13a2": 115,
    "\u2581\u13be\u13c2\u13a5": 116,
    "\u2581\u13a3\u13cf\u13f3": 117,
    "\u2581\u13a0\u13ce": 118,
    "\u13f3": 119,
    "\u2581\u13a6\u13d9\u13af": 120,
    "\u2581\u13d4\u13b5": 121,
    "\u13b4": 122,
    "\u2581\u13a2\u13cf\u13b5": 123,
    "\u2581[": 124,
    "\u2581\u13a4\u13df": 125,
    "\u2581\u13aa\u13af": 126,
    "\u2581\u13d7\u13a7\u13bf\u13e9\u13db\u13cd\u13d7": 127,
    "\u2581\u13af": 128,
    "\u2581\u13a0\u13d3\u13c5\u13d9": 129,
    "\u2581\u13d3": 130,
    "\u2581\u13a3\u13cd\u13d3": 131,
    "\u13d2": 132,
    "\u2581\u13a0\u13c2\u13cd\u13a6\u13ef": 133,
    "\u2581\u13a8\u13ce": 134,
    "\u2581\u13a2\u13e5\u13c8\u13f1": 135,
    ".\u201d": 136,
    "\u2581\u13d4\u13b5\u13c1": 137,
    "\u2581\u13bc\u13cf": 138,
    "\u2581\u13a6": 139,
    "\u13b2": 140,
    "\u13cd\u13aa": 141,
    "\u2581\u13a2\u13f3": 142,
    "\u2581\u13ac\u13e9": 143,
    "\u2581\u13a8\u13d2\u13a9": 144,
    "\u2581\u2060": 145,
    "\u2581\u13a4\u13cd\u13d7": 146,
    "\u2581\u13a2\u13ac\u13f1": 147,
    "\u2581\u13e4\u13a6\u13c8": 148,
    "\u2581\u13da\u13f3\u13aa\u13db": 149,
    "\u2581\u13a1\u13b3\u13d7": 150,
    "]": 151,
    "\u2581\u13a4\u13c2\u13e3\u13d8": 152,
    "!": 153,
    "\u2581\u13a1\u13c6\u13ad\u13bb": 154,
    "\u2581\u13a2\u13f3\u13b5\u13cd\u13d9\u13d7\u13f1": 155,
    "\u2581\u13a6\u13d9\u13c3": 156,
    "\u2581\u13a0\u13eb": 157,
    "\u13cd\u13a9": 158,
    "\u2581\u13f3": 159,
    ":": 160,
    "\u13a8\u13cd\u13d7": 161,
    "\u13a0": 162,
    "\u2581\u13a2\u13d7\u13e2": 163,
    "\u2581\u13e9\u13a6": 164,
    "\u2581\u13c7\u13b5\u13f2": 165,
    "\u2581\u13eb": 166,
    "\u2581\u13cf\u13c6": 167,
    "\u2581\u13a0\u13a8\u13f4": 168,
    "\u13aa": 169,
    "\u2581\u13f2\u13be": 170,
    "\u2581\u13e6\u13e9": 171,
    "\u2581\u13a4\u13be": 172,
    "\u13ac": 173,
    "\u2581\u13cc\u13b3\u13d3": 174,
    "\u2581\u13a0\u13cf": 175,
    "\u2581\u13be\u13a5": 176,
    "!\u201d": 177,
    "\u13d9\u13d7": 178,
    "\u2581\u13c4\u13ea\u13d2\u13a9": 179,
    "\u2581\u13c5\u13a9": 180,
    "?\u201d": 181,
    "\u2581\u13c4\u13ea\u13ce\u13b4\u13a2": 182,
    "\u2581\u13ed": 183,
    "\u2581\u13c2\u13a6\u13d3": 184,
    "\u2581\u13e7\u13d3\u13b4\u13c5\u13db": 185,
    "\u2581\u13f1\u13a8\u13ce\u13cd\u13d7": 186,
    "\u2581\u13e6\u13a2": 187,
    "\u13ef": 188,
    "\u2581\u13a2\u13e5": 189,
    "\u2581\u13a4\u13d9\u13af\u13f3\u13af\u13ef": 190,
    "\u2581\u13e5\u13cc\u13c3": 191,
    "\u2581\u13c5\u13ef": 192,
    "\u13e5": 193,
    "\u13c1": 194,
    "\u2581\u13c2\u13da\u13ea\u13ce\u13b4\u13a2": 195,
    "\u2581\u13ef": 196,
    "\u2581\u13a6\u13da": 197,
    "\u2581\u13d0\u13c8\u13b5": 198,
    "\u2581\u13dd\u13cd\u13aa": 199,
    "\u2581\u13c4": 200,
    "\u2581\u13a0\u13c2\u13e7\u13cf": 201,
    "\u2581\u13e3\u13ac\u13eb\u13f3\u13af": 202,
    "\u2581\u13a4\u13ac\u13e9\u13b5": 203,
    "\u2581\u13e7\u13e4\u13b5": 204,
    "\u2581\u13c2": 205,
    "\u13ce": 206,
    "\u2581\u13a6\u13b5\u13c9\u13a9": 207,
    "\u2581\u13d3\u13b6\u13c2\u13a8": 208,
    "\u2581\u13ac\u13e9\u13cd\u13d3\u13e9\u13d7\u13d9\u13af": 209,
    "\u2581\u13ac": 210,
    "\u2581\u13c4\u13ea\u13ce\u13b8\u13a9": 211,
    "\u13cd\u13ac": 212,
    "\u2581\u13a1\u13cd\u13a6": 213,
    "\u13ae": 214,
    "\u2581\u13a8": 215,
    "\u2581\u13a6\u13aa": 216,
    "\u2581\u13c2\u13a6\u13d7\u13f3": 217,
    "\u2581\u13a2\u13e7\u13b3\u13ad": 218,
    "\u2581\u13ac\u13d7": 219,
    "\u2581\u13c2\u13aa\u13af\u13b8": 220,
    "\u2581\u13f0\u13b5\u13c9": 221,
    "\u13b3": 222,
    "\u2581\u13a6\u13d3": 223,
    "\u2581\u13a0\u13c6": 224,
    "\u2581\u13a4\u13d9\u13d3": 225,
    "\u2581\u13a0\u13d3": 226,
    "\u2581\u13da\u13c2": 227,
    "\u2581\u13c8\u13d3": 228,
    "\u2581\u13a3\u13c2": 229,
    "\u2581\u13c4\u13ea\u13ce\u13b4": 230,
    "\u2581\u13d5": 231,
    "\u2581\u13a4\u13e4\u13cd\u13d9": 232,
    "\u2581\u13e5\u13b7\u13cf\u13b5\u13bb": 233,
    "\u2581\u13c2\u13da\u13ea\u13ce\u13b8\u13a9": 234,
    "\u2581\u13a0\u13cf\u13c9": 235,
    "\u2581\u13e3\u13c2": 236,
    "\u2581\u13a6\u13da\u13b2": 237,
    "\u2581\u13c5\u13d7\u13a6\u13b5\u13cd\u13d9\u13d7\u13ad": 238,
    "\u2581\u13a0\u13c2\u13a8\u13f4": 239,
    "\u2581\u13ac\u13c2": 240,
    "\u2581\u13a4\u13c5\u13d2": 241,
    "\u2581\u13a2\u13a9": 242,
    "\u2581\u13aa\u13ea\u13b5": 243,
    "\u2581\u13c9\u13b3": 244,
    "\u2581\u13e7\u13be\u13d3\u13b4\u13c5\u13db": 245,
    "\u2581\u13f1\u13a8\u13ce": 246,
    "\u2581\u13a1\u13d9\u13d3": 247,
    "\u2581\u13a2\u13ef\u13c2\u13db": 248,
    "\u2581\u13ac\u13c2\u13db": 249,
    "\u2581\u13a0\u13a9": 250,
    "\u2581\u13c4\u13ac\u13eb\u13f3\u13d2": 251,
    "\u2581\u13c2\u13ac\u13be\u13db": 252,
    "\u13d8": 253,
    "\u2581\u13a2\u13a6\u13a2": 254,
    "\u2581\u13cd\u13a9": 255,
    "\u2581\u13a1": 256,
    "\u2581\u13be\u13cd\u13a9\u13ef\u13a2": 257,
    "\u2581\u13d0\u13c9": 258,
    "\u2581\u13e3\u13b5": 259,
    "\u2581\u13aa\u13af\u13f3\u13d7": 260,
    "\u2581\u13a0\u13c2\u13d4\u13b5": 261,
    "\u13d4\u13c5\u13af": 262,
    "\u13b0": 263,
    "\u2581\u13be\u13a5\u13c2": 264,
    "\u2581\u13a1\u13b3\u13c2": 265,
    "\u2581\u13a4\u13b5\u13c2\u13a9\u13db": 266,
    "\u13f4": 267,
    "\u2581\u13c4\u13b5\u13cd\u13d4\u13c1\u13a2": 268,
    "\u2581\u13a2\u13f4": 269,
    "\u2581\u13a4\u13c1\u13e8": 270,
    "\u2581\u13a4\u13d9\u13af\u13f3\u13af": 271,
    "\u2581\u13bc\u13cf\u13c3": 272,
    "\u2581\u13e7\u13c2": 273,
    "\u2581\u13a4\u13d3\u13b5\u13a2": 274,
    "\u13b8\u13a9": 275,
    "\u2581\u13d7\u13a6\u13b3\u13eb\u13a2\u13cd\u13d7\u13f1": 276,
    "\u13cd\u13a8\u13cd\u13d7": 277,
    "\u2581\u13a2\u13ac\u13f1\u13d7\u13e2": 278,
    "\u2581\u13a4\u13d3\u13d9\u13b5\u13cd\u13d7": 279,
    "\u2581\u13a0\u13e3\u13d7": 280,
    "\u2581\u13c4\u13c2\u13ea\u13ce\u13a2": 281,
    "\u2581\u13e5\u13aa": 282,
    "\u2581\u13ad": 283,
    "\u13b8\u13af": 284,
    "\u2581\u13d9": 285,
    "\u2581\u13a2\u13a8\u13ce\u13cd\u13d7": 286,
    "\u13b4\u13a2": 287,
    "\u13ae\u13cd\u13d7": 288,
    "\u2581\u13a7": 289,
    "\u2581\u13d7\u13a7\u13bf\u13e9\u13d7\u13d9\u13af": 290,
    "\u13a5": 291,
    "\u2581\u13af\u13cd\u13a9": 292,
    "\u2581\u13d7\u13a6\u13b8\u13eb\u13cd\u13d3\u13c1\u13d7": 293,
    "\u2581\u13a0\u13ef": 294,
    "\u2581\u13d7\u13e3": 295,
    "\u2581\u13a2\u13e7\u13b3": 296,
    "\u2581\u13a9\u13a6\u13a8": 297,
    "\u2581\u13a4\u13db\u13c5": 298,
    "\u2581\u13a1\u13cf\u13a9": 299,
    "\u2581\u13a0\u13be\u13b5\u13c5\u13df": 300,
    "\u2581\u13cc\u13cc": 301,
    "\u2581\u13b0\u13bb": 302,
    "\u2581\u13a6\u13b6\u13af\u13cd\u13d7\u13f1": 303,
    "\u13e8": 304,
    "\u2581\u13c5\u13e9\u13d3\u13b4": 305,
    "\u2581\u13ad\u13eb\u13c2": 306,
    "\u2581\u13d1\u13be\u13b4": 307,
    "\u2581\u13e7\u13be": 308,
    "\u2581\u13a0\u13b5\u13cd\u13d3\u13f4\u13d7": 309,
    "\u13d4\u13c5": 310,
    "\u2581\u13cd\u13a9\u13be\u13be": 311,
    "\u2581\u13c5\u13d9": 312,
    "\u2581\u13d2\u13c3\u13f1": 313,
    "\u2581\u13a2\u13ac\u13f1\u13f1": 314,
    "\u2581\u13a2\u13be\u13a8": 315,
    "\u2581\u13ac\u13e9\u13a6\u13d8\u13ef": 316,
    "\u2581\u13a4\u13c3\u13d5\u13be": 317,
    "\u2581\u13a0\u13e7\u13e3": 318,
    "\u13eb": 319,
    "\u2581\u13a4\u13e9\u13cc": 320,
    "\u2581\u13d4\u13b3\u13da": 321,
    "\u13e3": 322,
    "\u2581\u13a3": 323,
    "\u13e2": 324,
    "\u2581\u13a4\u13e5": 325,
    "\u2581\u13a6\u13b8\u13b6\u13a2": 326,
    "\u2581\u13f1\u13a8\u13ce\u13a2": 327,
    "\u13cc": 328,
    "\u2581\u13e7\u13ac\u13e9\u13b6\u13d7": 329,
    "\u2581\u13a9\u13b3": 330,
    "\u2581\u13a4\u13d3": 331,
    "\u2581\u13a4\u13be\u13e4\u13b5\u13a6": 332,
    "\u13c5\u13af": 333,
    "\u2581\u13da\u13d9\u13a5": 334,
    "\u2581\u13da\u13be": 335,
    "\u2581\u13a6\u13f2\u13df": 336,
    "\u2581\u13c5\u13e9\u13d9\u13af\u13ef\u13db": 337,
    "\u2581\u13a0\u13cf\u13f4\u13eb": 338,
    "\u2581\u13a5": 339,
    "\u2581\u13a2\u13e4": 340,
    "\u13c9\u13cd\u13a9\u13c2": 341,
    "\u2581\u13a2\u13b8\u13af\u13f3": 342,
    "\u2581\u13a2\u13d3\u13b5\u13c5\u13df": 343,
    "\u2581\u13e7\u13be\u13c1\u13b6\u13d7": 344,
    "\u13cd\u13db": 345,
    "\u13cd\u13a9\u13c2\u13c3\u13c5": 346,
    "\u2581\u13f1\u13a8\u13d2\u13be": 347,
    "\u13d9": 348,
    "\u2581\u13a3\u13a9": 349,
    "\u13cd": 350,
    "\u2581\u13a4\u13cd\u13c6\u13c2\u13aa\u13d7": 351,
    "\u2581\u13a4\u13da\u13a9": 352,
    "\u2581\u13d7\u13a6": 353,
    "\u2581\u13a0\u13c6\u13e4\u13b5": 354,
    "\u2581\u13a2\u13aa\u13af\u13db": 355,
    "\u2581\u13a0\u13ac\u13f1": 356,
    "\u2581\u13a0\u13f0\u13b8": 357,
    "\u2581\u13c4\u13b5\u13cd\u13d4\u13c5": 358,
    "\u2581\u13a1\u13c6": 359,
    "\u2581\u13ad\u13eb\u13c2\u13d7\u13e2": 360,
    "\u2581\u13a0\u13c7\u13e5": 361,
    "\u13d5": 362,
    "\u2581\u13e7\u13e4\u13b5\u13a6": 363,
    "\u2581\u13a9\u13b3\u13c9": 364,
    "\u13d4": 365,
    "\u2581\u13c5\u13d3\u13f3\u13d3\u13b4\u13c5\u13af": 366,
    "\u2581\u13c2\u13e8\u13ea\u13ce\u13ad": 367,
    "\u2581\u13c4\u13c2\u13ea\u13d2\u13a9": 368,
    "\u2581\u13a6\u13d3\u13ad": 369,
    "\u2581\u13a4\u13c7\u13d3\u13b5": 370,
    "\u2581\u13a6\u13f3\u13b3": 371,
    "\u2581\u13a4\u13be\u13d3\u13c5\u13d8": 372,
    "\u13ce\u13a2": 373,
    "\u2581\u13a2\u13f3\u13e9\u13c2\u13cc\u13db": 374,
    "\u2581\u13a2\u13f3\u13f0\u13c3": 375,
    "\u2581\u13a2\u13d0": 376,
    "\u2581\u13e5\u13f3": 377,
    "\u2581\u13c3\u13d7": 378,
    "\u2581\u13a2\u13a6\u13db": 379,
    "\u2581\u13db": 380,
    "\u2581\u13a4\u13c1\u13b3\u13a9": 381,
    "\u2581\u13a4\u13d5\u13b5\u13db": 382,
    "\u2581\u13e7\u13d9\u13a2\u13db": 383,
    "\u2581\u13c4\u13ea\u13d2": 384,
    "\u2581\u13c4\u13cd\u13d7": 385,
    "\u2581\u13a2\u13ef\u13a6\u13f4\u13b5": 386,
    "\u2581\u13e7\u13cd\u13c6\u13f4\u13cd\u13d7": 387,
    "\u2581\u13a4\u13db\u13db\u13c1": 388,
    "\u2581\u13d7\u13aa\u13e2\u13d4\u13c5\u13af": 389,
    "\u2581\u13d3\u13c2": 390,
    "\u2581\u13cd\u13c9": 391,
    "\u2581\u13a0\u13c1\u13b2": 392,
    "\u13c1\u13a2": 393,
    "\u13cd\u13d7\u13f1": 394,
    "\u2581\u13a6\u13b5\u13e6\u13db": 395,
    "\u13ae\u13a2": 396,
    "\u13c5\u13a9": 397,
    "\u2581\u13c4\u13b5\u13cd\u13d4\u13c1": 398,
    "\u2581\u13e9": 399,
    "\u2581\u13c4\u13d3\u13b4\u13d2": 400,
    "\u2581\u13e6": 401,
    "\u13b8\u13a2": 402,
    "\u2581\u13a0\u13c1\u13b2\u13a2": 403,
    "\u13d2\u13a9": 404,
    "\u2581\u13a0\u13cd\u13d3\u13ef": 405,
    "\u2581\u13a4\u13be\u13e4\u13b5": 406,
    "\u13d9\u13d7\u13f1": 407,
    "\u2581\u13a2\u13f3\u13b5\u13cd\u13d9\u13d7": 408,
    "\u2581\u13a0\u13be\u13d9\u13b4\u13b0\u13cd\u13a9": 409,
    "\u2581\u13a6\u13c1\u13b8": 410,
    "\u2581\u13d0\u13a2": 411,
    "\u2581\u13e6\u13a2\u13c1": 412,
    "\u2581\u13c3\u13c9": 413,
    "\u2581\u13a0\u13cd\u13aa\u13af\u13e7\u13c8": 414,
    "\u2581\u13a1\u13b3\u13c6\u13d7": 415,
    "\u2581\u13e7\u13c5\u13cf\u13d3\u13cd\u13d7": 416,
    "\u2581\u13a9\u13ac": 417,
    "\u13a8\u13a2": 418,
    "\u13b2\u13a2": 419,
    "\u2581\u13c4\u13b5\u13cd\u13d4\u13c5\u13a9": 420,
    "\u2581\u13dd": 421,
    "\u2581\u13cc\u13e9\u13c2": 422,
    "\u2581\u13a0\u13c2\u13c6\u13b5\u13cf": 423,
    "\u2581\u13e0\u13a8\u13cf": 424,
    "\u2581\u13a0\u13f2\u13b1\u13af\u13cd\u13d7": 425,
    "\u2581\u13a0\u13d3\u13c1\u13b8": 426,
    "\u2581\u13a7\u13c5\u13c2\u13cd\u13a9": 427,
    "\u13aa\u13a2": 428,
    "\u2581\u13a0\u13a6\u13f4\u13b5\u13a8": 429,
    "\u2581\u13a0\u13ba\u13c9\u13af": 430,
    "\u2581\u13c4\u13c2\u13ac\u13eb\u13f3\u13d2": 431,
    "\u2581\u13e7\u13d5\u13d8\u13f4\u13db": 432,
    "\u2581\u13a4\u13c2\u13c3\u13d5\u13be": 433,
    "\u2581\u13e5\u13f3\u13af": 434,
    "\u2581\u13a4\u13c1\u13ac": 435,
    "\u2581\u13a4\u13d2\u13af": 436,
    "\u2581\u13cf": 437,
    "\u2581\u13a4\u13c2\u13ac\u13eb\u13f3\u13af": 438,
    "\u2581\u13a4\u13c3\u13b4": 439,
    "\u2581\u13a0\u13cd\u13a6\u13c2": 440,
    "\u2581\u13a2\u13a6\u13e4\u13b5": 441,
    "\u2581\u13a0\u13d9\u13b4\u13b0\u13cd\u13a9": 442,
    "\u2581\u13a0\u13cd\u13aa\u13b5": 443,
    "\u2581\u13d7\u13c2\u13a7\u13bf\u13e9\u13d7\u13d9\u13af": 444,
    "\u2581\u13e3\u13c4\u13cf": 445,
    "\u2581\u13c5\u13e9\u13be\u13d3\u13b4": 446,
    "\u2581\u13c2\u13af\u13cd\u13a9\u13c2": 447,
    "\u2581\u13d5\u13e5": 448,
    "\u13e4": 449,
    "\u2581\u13be\u13bf\u13c2": 450,
    "\u13a8\u13b6\u13af": 451,
    "\u2581\u13a1\u13e3": 452,
    "\u2581\u13a4\u13d3\u13c5\u13d8": 453,
    "\u2581\u13e7\u13c2\u13cd\u13c6\u13c2\u13aa\u13d9\u13d7": 454,
    "\u2581\u13a5\u13a5": 455,
    "\u13b6": 456,
    "\u2581\u13d7\u13c2\u13f2\u13b5": 457,
    "\u2581\u13c2\u13ac": 458,
    "\u2581\u13a0\u13f2\u13b5": 459,
    "\u13c1\u13b8": 460,
    "\u2581\u13a4\u13ec\u13f0\u13c2": 461,
    "\u2581\u13a1\u13c6\u13bb": 462,
    "\u2581\u13a4\u13b5\u13c2\u13a9\u13d7\u13f3": 463,
    "\u2581\u13a1\u13dd\u13ea\u13af": 464,
    "\u2581\u13c2\u13ac\u13c5": 465,
    "\u2581\u13a0\u13a6\u13f4\u13b5\u13a8\u13a2": 466,
    "\u2581\u13a4\u13b5\u13cf\u13a9": 467,
    "\u2581\u13aa\u13b0\u13cd\u13d7": 468,
    "\u2581\u13e8\u13d2": 469,
    "\u2581\u13a2\u13e8\u13d2": 470,
    "\u13cd\u13d9\u13d7": 471,
    "\u13ac\u13a2": 472,
    "\u2581\u13a6\u13b8\u13b6": 473,
    "\u2581\u13e4\u13e5": 474,
    "\u2581\u13a6\u13be\u13dd\u13a2": 475,
    "\u2581\u13a0\u13d3\u13a8\u13f3\u13d7": 476,
    "\u2581\u13a1\u13e5": 477,
    "\u2581\u13a8\u13b5\u13b5": 478,
    "\u2581\u13d4\u13b5\u13c1\u13c3": 479,
    "\u13c6": 480,
    "\u2581\u13e5\u13a8\u13d2\u13a9": 481,
    "\u2581\u13e5\u13a8\u13ce\u13a2": 482,
    "\u2581\u13a8\u13d0\u13a2": 483,
    "\u13a0\u13c1\u13b6\u13af": 484,
    "\u13a3": 485,
    "\u13a4": 486,
    "\u2581\u13d5\u13a6": 487,
    "\u2581\u13a2\u13ef\u13a9\u13f3\u13cd\u13c8\u13db": 488,
    "\u2581\u13ad\u13be": 489,
    "\u2581\u13a4\u13c1\u13b3\u13c5\u13af\u13c3": 490,
    "\u2581\u13a2\u13e8": 491,
    "\u13cd\u13a6": 492,
    "\u2581\u13a0\u13c4\u13ec": 493,
    "\u2581\u13d7\u13c3\u13ea\u13b5\u13cd\u13a9": 494,
    "\u2581\u13a0\u13cd\u13a9\u13be": 495,
    "\u2581\u13a4\u13e4\u13b5\u13aa\u13af": 496,
    "\u2581\u13a4\u13c5\u13cf\u13d3\u13cd\u13d7": 497,
    "\u2581\u13d5\u13eb": 498,
    "\u13a1": 499,
    "\u13e7": 500,
    "\u13cd\u13ac\u13a2": 501,
    "\u2581\u13a6\u13f0\u13aa\u13a9": 502,
    "\u2581\u13a0\u13c2\u13f4\u13eb\u13ef": 503,
    "\u2581\u13a2\u13aa\u13af\u13d3": 504,
    "\u2581\u13a2\u13d7": 505,
    "\u2581\u13a0\u13a6\u13d4\u13b2\u13a2": 506,
    "\u2581\u13ad\u13c2": 507,
    "\u2581\u13a3\u13d3\u13b8": 508,
    "\u2581\u13d7\u13e5": 509,
    "\u2581(": 510,
    "\u13c8": 511,
    "\u2581\u13a6\u13b8\u13c9\u13d7": 512,
    "\u2581\u13d8": 513,
    "\u13a6\u13b5": 514,
    "\u2581\u13d7\u13c6\u13e4\u13b5": 515,
    "\u2581\u13a4\u13f4\u13cd\u13d7": 516,
    "\u2581\u13b4\u13c6\u13c2": 517,
    "\u2581\u13a0\u13c3\u13af\u13f3\u13b2\u13cd\u13a9": 518,
    "\u2581\u13d3\u13c6\u13b4\u13b3": 519,
    "\u2581\u13a4\u13e3\u13d4\u13c5\u13af": 520,
    "\u2581\u13e5\u13cd\u13d5\u13e5": 521,
    "\u2581\u13a0\u13f0\u13b3\u13cd\u13d7": 522,
    "\u2581\u13a4\u13ac\u13eb\u13f3\u13cc\u13d5\u13a9": 523,
    "\u2581\u13a7\u13c1\u13cc\u13a2": 524,
    "\u2581\u13c4\u13cd\u13d5\u13cd\u13d7": 525,
    "\u2581\u13a8\u13d0": 526,
    "\u13d2\u13a2": 527,
    "\u13d4\u13c5\u13a9": 528,
    "\u2581\u13c4\u13d3\u13b4": 529,
    "\u2581\u13e3\u13e4\u13b5": 530,
    "\u2581\u13a0\u13e5": 531,
    "\u2581\u13aa\u13a2": 532,
    "\u2581\u13a7\u13c1\u13cd\u13a6": 533,
    "\u2581\u13a0\u13c2\u13cd\u13a9\u13be": 534,
    "\u2581\u13d7\u13a6\u13d9\u13b5": 535,
    "\u13cd\u13a8\u13a2": 536,
    "\u2581\u13a0\u13db": 537,
    "\u2581\u13a0\u13a9\u13be": 538,
    "\u2581\u13a8\u13b3\u13cd\u13d7\u13f1": 539,
    "\u2581\u13a4\u13f0\u13b8\u13d7": 540,
    "\u2581\u13a4\u13db\u13a6\u13c5": 541,
    "\u13e9": 542,
    "\u2581\u13eb\u13e5": 543,
    "\u2581\u13e8": 544,
    "\u2581\u13a6\u13da\u13b2\u13a2": 545,
    "\u2581\u13d7\u13c2\u13f2\u13df": 546,
    "\u2581\u13a0\u13cc\u13bb\u13d3": 547,
    "\u2581\u13a8\u13e5\u13c5\u13cf\u13db": 548,
    "\u2581\u13ba\u13b5": 549,
    "\u2581\u13a0\u13d7\u13be": 550,
    "\u2581\u13e7\u13c1\u13e5": 551,
    "\u2581\u13a0\u13c2\u13cf\u13f4\u13eb\u13ad": 552,
    "\u13a7": 553,
    "\u2581\u13a4\u13f2\u13b1\u13d2": 554,
    "\u2581\u13a2\u13a6\u13db\u13c3": 555,
    "\u2581\u13a0\u13be": 556,
    "\u2581\u13a4\u13f0\u13b8\u13db": 557,
    "\u2581\u13e5\u13a8\u13d2": 558,
    "\u2581\u13a4\u13aa\u13b2": 559,
    "\u2581\u13d7\u13e3\u13e4\u13b5": 560,
    "\u2581\u13a2\u13b8\u13af\u13e2": 561,
    "\u2581\u13a6\u13e9\u13d2\u13a9": 562,
    "\u2581\u13e7\u13c2\u13f2\u13b1\u13d2\u13af": 563,
    "\u2581\u13a2\u13f3\u13d5\u13d8\u13f4\u13db": 564,
    "\u2581\u13a4\u13d5\u13c1\u13b4\u13a2": 565,
    "\u2581\u13aa\u13e2\u13d4\u13c5\u13af": 566,
    "\u2581\u13a2\u13ef": 567,
    "\u2581\u13d1\u13d3\u13b5": 568,
    "\u2581\u13a0\u13cd\u13aa\u13af": 569,
    "\u2581\u13a0\u13ce\u13c9": 570,
    "\u13e7\u13c8": 571,
    "\u2581\u13a2\u13f3\u13cd\u13a9\u13c2": 572,
    "\u13c1\u13d7\u13f1": 573,
    "\u2581\u13ac\u13c5": 574,
    "\u2581\u13e5\u13a8\u13ce": 575,
    "\u13f2": 576,
    "\u2581\u13c5\u13d3\u13ac\u13e9\u13d3\u13b4\u13c5\u13db": 577,
    "\u2581\u13b1": 578,
    "\u2581\u13e3\u13c1\u13b3\u13c5\u13af": 579,
    "\u2581\u13c2\u13aa\u13af\u13b8\u13a2": 580,
    "\u2581\u13a2\u13f3\u13be\u13cd\u13d7": 581,
    "\u2581\u13a0\u13a6\u13d9\u13a5\u13af\u13cd\u13d7": 582,
    "\u2581\u13a4\u13d2": 583,
    "\u13ac\u13be": 584,
    "\u13cd\u13a8": 585,
    "\u13d7\u13a6\u13b3\u13eb\u13a2\u13cd\u13d7\u13f1": 586,
    "\u13b2\u13a9": 587,
    "\u2581\u13c5": 588,
    "\u2581\u13a4\u13be\u13d3\u13e1\u13ac": 589,
    "\u2581\u13a7\u13c1\u13ac": 590,
    "\u2581\u13f4": 591,
    "\u13d4\u13c1\u13a2": 592,
    "\u2581\u13d7\u13d3\u13cd\u13da\u13d7\u13f1": 593,
    "\u2581\u13c3\u13ef": 594,
    "\u2581\u13c5\u13f2\u13af": 595,
    "\u2581\u13e5\u13a6\u13d4\u13ad": 596,
    "o": 597,
    "\u2581\u13c4\u13ea\u13ce": 598,
    "\u2581\u13c5\u13d7\u13a6\u13b5\u13cd\u13d9\u13d7\u13cd\u13a8": 599,
    "\u2581\u13d3\u13d4\u13b4\u13d2": 600,
    "\u13ad\u13e9": 601,
    "\u2581\u13a8\u13f4": 602,
    "\u13cd\u13aa\u13a2": 603,
    "\u13cd\u13d4\u13c5": 604,
    "\u2581\u13d4\u13d5\u13f2\u13b2\u13cd\u13a9": 605,
    "\u2581\u13c6\u13b4\u13d7": 606,
    "\u2581\u13d7\u13e4\u13e5": 607,
    "\u2581\u13a5\u13e3\u13f1": 608,
    "\u2581\u13a4\u13be\u13e4\u13b5\u13aa\u13af": 609,
    "\u2581\u13d7\u13be\u13d3\u13c5\u13df": 610,
    "\u2581\u13a4\u13b5": 611,
    "\u2581\u13a4\u13d0\u13c5": 612,
    "\u13df": 613,
    "\u2581\u13a4\u13c5\u13d7": 614,
    "\u2581\u13a4\u13be\u13db\u13a6\u13c5": 615,
    "\u2581\u13c2\u13a6": 616,
    "\u2581\u13a0\u13b2": 617,
    "\u2581\u13b0\u13e9": 618,
    "\u2581\u13b0": 619,
    "\u2581\u13d7\u13c2": 620,
    "\u2581\u13c5\u13a6\u13cd\u13aa\u13af": 621,
    "\u2581\u13a4\u13b5\u13ae\u13b5\u13cd\u13d7": 622,
    "\u2581\u13a4\u13b4\u13c5\u13ae": 623,
    "\u2581\u13c5\u13d3\u13a6\u13b5\u13cd\u13d9\u13d7\u13cd\u13ac\u13a9": 624,
    "\u2581\u13a4\u13f2\u13a2\u13f3": 625,
    "\u2581\u13a0\u13b3\u13c2": 626,
    "\u2581\u13ac\u13d8": 627,
    "\u2581\u13da\u13ec\u13a1\u13a2": 628,
    "\u2581\u13a1\u13b6\u13db": 629,
    "\u2581\u13a4\u13e0\u13f1": 630,
    "\u2581\u13a0\u13c2\u13ef\u13eb\u13cd\u13a9": 631,
    "\u13ce\u13cd\u13d7": 632,
    "\u13f0": 633,
    "\u2581\u13a4\u13c5": 634,
    "\u2581\u13a0\u13c2\u13d0\u13a2": 635,
    "\u2581\u13a4\u13b7\u13e8": 636,
    "\u2581\u13a6\u13c1\u13b8\u13a2": 637,
    "\u2581\u13a6\u13b5\u13e6\u13db\u13a2": 638,
    "\u2581\u13a4\u13d9\u13af\u13f3": 639,
    "\u2581-": 640,
    "\u13d4\u13c1": 641,
    "\u2581\u13a4\u13a7\u13db": 642,
    "\u13be\u13cd\u13a9": 643,
    "\u2581\u13d7\u13c5\u13c3\u13db": 644,
    "\u2581\u13cc\u13c9\u13c9": 645,
    "\u13d2\u13af": 646,
    "\u2581\u13a1\u13ba\u13c5": 647,
    "\u2581\u13ac\u13e9\u13da\u13eb\u13db": 648,
    "\u2581\u13a0\u13c2\u13e7\u13e3": 649,
    "\u2581\u13a9\u13b3\u13c8\u13f4": 650,
    "\u2581\u13a0\u13ac\u13f1\u13e3": 651,
    "\u2581\u13c2\u13af\u13c3": 652,
    "\u2581\u13ad\u13eb\u13c2\u13e3": 653,
    "\u2581\u13a3\u13af\u13cd\u13d9\u13d7": 654,
    "\u2581\u13ac\u13d4\u13c5\u13af": 655,
    "\u13d0": 656,
    "\u2581\u13be\u13cd\u13a9\u13cd\u13a9\u13c2": 657,
    "\u2581\u13ab": 658,
    "\u2581\u13ac\u13c2\u13a8": 659,
    "\u2581\u13a3\u13c2\u13c3": 660,
    "\u2581\u13a6\u13cd\u13a9\u13b8": 661,
    "\u2581\u13c2\u13da\u13ea\u13ce\u13b4": 662,
    "\u2581\u13a4\u13d9\u13b4\u13b0\u13d2": 663,
    "\u2581\u13e5\u13da": 664,
    "\u2581\u13b4\u13e5\u13b5": 665,
    "\u2581\u13a4\u13e3\u13b4\u13cd\u13d7": 666,
    "\u2581\u13c2\u13e3": 667,
    "\u2581\u13a6\u13b8\u13b3\u13d7\u13e2": 668,
    "\u2581\u13ad\u13e2": 669,
    "\u2581\u13e4": 670,
    "\u13a8\u13b3\u13cd\u13d7\u13f1": 671,
    "\u13c1\u13b8\u13af": 672,
    "\u2581\u13e5\u13a8\u13d0": 673,
    "\u2581\u13c2\u13e5\u13a5": 674,
    "\u2581\u13cd\u13a9\u13f4": 675,
    "\u2581\u13d3\u13a6": 676,
    "\u2581\u13a4\u13d3\u13c5\u13d9": 677,
    "\u2581\u13f1\u13a6": 678,
    "\u2581\u13d7\u13c4\u13ec": 679,
    "\u2581\u13eb\u13be\u13cd\u13db\u13be": 680,
    "\u2581\u13e7\u13d2\u13af\u13db": 681,
    "\u2581\u13ce\u13b5": 682,
    "\u2581\u13a4\u13c1": 683,
    "\u2581\u13e4\u13af": 684,
    "\u13cd\u13d3": 685,
    "\u2581\u13d7\u13ac\u13e9": 686,
    "\u2581\u13da\u13cf\u13b3\u13db": 687,
    "\u2581\u13a4\u13be\u13d9\u13d3\u13c6\u13cd\u13ac": 688,
    "\u2581\u13a2\u13b8\u13cd\u13a9": 689,
    "\u2581\u13a2\u13ef\u13c2": 690,
    "\u2581\u13d6\u13b8\u13b3\u13d7": 691,
    "\u2581\u13a6\u13b5\u13e6\u13d5": 692,
    "\u2581\u13a1\u13c9\u13c2": 693,
    "\u13ac\u13a9": 694,
    "\u2581\u13be\u13c2\u13ea\u13cd\u13a8\u13a2": 695,
    "\u2581\u13d4\u13b7\u13a9\u13cd\u13a9": 696,
    "\u2581\u13a0\u13c6\u13e4\u13b5\u13a6": 697,
    "\u2581\u13a1\u13ad": 698,
    "\u2581\u13e7\u13d7\u13f1": 699,
    "\u2581\u13a0\u13cb\u13d2": 700,
    "\u2581\u13a8\u13be\u13c2": 701,
    "\u2581\u13a0\u13a6": 702,
    "\u2581\u13ad\u13eb\u13ef": 703,
    "\u2581\u13a4\u13cf\u13d9\u13b5": 704,
    "\u2581\u13a2\u13f3\u13df\u13b6\u13db": 705,
    "\u2581\u13c3\u13c8\u13cf": 706,
    "\u2581\u13c2\u13ac\u13e9\u13ea\u13ce\u13b4\u13a2": 707,
    "\u2581\u13d5\u13e3": 708,
    "\u2581\u13aa\u13f1\u13c1\u13a2": 709,
    "\u2581\u13a6\u13da\u13cf": 710,
    "\u2581\u13e4\u13cd\u13d7": 711,
    "\u2581\u13a0\u13c2\u13a6\u13d4\u13b2": 712,
    "\u2581\u13a4\u13c1\u13e4": 713,
    "\u2581\u13a2\u13be\u13a8\u13a2": 714,
    "\u13d3\u13c1\u13d7": 715,
    "\u2581\u13ed\u13d5\u13b5\u13ac": 716,
    "\u2581\u13d7\u13e8\u13cd\u13d9\u13d7": 717,
    "\u2581\u13d1\u13be\u13d3\u13e1\u13a9": 718,
    "\u2581\u13e7\u13c2\u13b8\u13eb\u13cd\u13d3\u13c1\u13af": 719,
    "\u2581\u13a2\u13be\u13db": 720,
    "\u2581\u13ab\u13e9": 721,
    "\u2581\u13c5\u13d7\u13a6\u13b5\u13cd\u13d9\u13d7\u13cd\u13a8\u13cd\u13d7": 722,
    "\u13d2\u13be": 723,
    "\u2581\u13a6\u13cd\u13a9\u13b6": 724,
    "\u2581\u13aa": 725,
    "\u2581\u13e5\u13a8\u13d0\u13a2": 726,
    "\u2581\u13a0\u13f4\u13c3": 727,
    "\u2581\u13a1\u13af\u13cd\u13d7": 728,
    "\u2581\u13d7\u13ab\u13aa\u13d9\u13d7": 729,
    "\u2581\u13a4\u13ea\u13b5\u13ce": 730,
    "\u13b2\u13be": 731,
    "\u2581\u13c4\u13be\u13cd\u13db": 732,
    "\u2581\u13a4\u13c1\u13e4\u13b4": 733,
    "\u13db\u13be": 734,
    "\u2581\u13a3\u13ad\u13c1": 735,
    "\u2581\u13a8\u13e5": 736,
    "\u13d7\u13cd\u13ac": 737,
    "\u2581\u13ac\u13c3\u13db": 738,
    "\u2581\u13d7\u13b5\u13cd\u13d3\u13f4\u13d7\u13f1": 739,
    "\u2581\u13a0\u13e5\u13b8\u13c9\u13d7\u13f3": 740,
    "\u2581\u13a4\u13d9": 741,
    "\u2581\u13a4\u13c1\u13b3\u13c5\u13af\u13cd\u13a9\u13c2": 742,
    "\u13d7\u13cd\u13a9": 743,
    "\u13b4\u13cd\u13d7": 744,
    "\u13af\u13f3": 745,
    "\u13af\u13a0": 746,
    "\u2581\u13c2\u13da": 747,
    "\u2581\u13c2\u13a6\u13ea\u13cd\u13ac": 748,
    "\u2581\u13a4\u13b5\u13cf\u13ac": 749,
    "\u2581\u13a1\u13b6": 750,
    "\u2581\u13a4\u13ea\u13b7\u13c1": 751,
    "\u2581\u13c4\u13db\u13c1\u13b4": 752,
    "\u2581\u13ac\u13c2\u13f3\u13c9\u13c3": 753,
    "\u2581\u13a0\u13c6\u13d3\u13c5\u13d9": 754,
    "\u2581\u13e5\u13cd\u13c6": 755,
    "\u2581\u13a6\u13b5": 756,
    "\u2581\u13a2\u13c5": 757,
    "\u2581\u13a4\u13c2\u13b7\u13e4": 758,
    "\u2581\u13e7\u13be\u13e4\u13b5": 759,
    "\u2581\u13c2\u13a6\u13ea\u13ad": 760,
    "\u2581\u13a5\u13de\u13cd\u13d7": 761,
    "\u2581\u13a0\u13b0\u13b5": 762,
    "\u2581\u13a0\u13ce\u13c9\u13c9": 763,
    "\u2581\u13a3\u13a6": 764,
    "\u13b7": 765,
    "\u2581\u13a4\u13ac\u13eb\u13f3": 766,
    "\u2581\u13ae\u13be": 767,
    "\u2581\u13e3\u13e5": 768,
    "\u2581\u13a1\u13b5": 769,
    "\u13d5\u13cd\u13d7": 770,
    "\u2581\u13a0\u13f0\u13b8\u13a2": 771,
    "\u13da": 772,
    "\u2581\u13d1\u13be\u13b4\u13a2": 773,
    "\u2581\u13a0\u13d3\u13c5\u13d6\u13cd\u13ac": 774,
    "\u2581\u13a0\u13b5\u13cd\u13aa\u13b8\u13d9\u13d7": 775,
    "\u13b0\u13a2": 776,
    "\u2581\u13a4\u13cd\u13aa\u13b8": 777,
    "\u2581\u13e6\u13a0\u13cd\u13aa\u13af": 778,
    "\u2581\u13e7\u13c6\u13b6\u13a6": 779,
    "\u2581\u13a9\u13a6": 780,
    "\u2581\u13d7\u13c2\u13b3\u13eb\u13a9": 781,
    "\u2581\u13a4\u13a9\u13ac": 782,
    "\u2581\u13a9\u13b6\u13cd\u13a9\u13c2": 783,
    "\u2581\u13a8\u13e3": 784,
    "\u2581\u13e7\u13be\u13e4\u13b5\u13a6": 785,
    "\u2581\u13e3\u13c1\u13ad": 786,
    "\u2581\u13a3\u13e5": 787,
    "\u2581\u13d4": 788,
    "\u2581\u13a9\u13a6\u13a8\u13a2": 789,
    "\u13bb": 790,
    "\u13c4": 791,
    "\u2581\u13a4\u13e9\u13d2\u13c9": 792,
    "\u13c1\u13e2\u13d4\u13c5\u13db": 793,
    "\u2581\u13d7\u13ac": 794,
    "\u2581\u13eb\u13da": 795,
    "\u2581\u13cd\u13a9\u13be": 796,
    "\u2581\u13a0\u13b5": 797,
    "\u2581\u13d3\u13f3": 798,
    "\u2581\u13c5\u13d7\u13a6\u13b5\u13cd\u13d9\u13d7\u13cd\u13ac": 799,
    "\u2581\u13a2\u13e3\u13b5\u13cd\u13d3\u13c1\u13d7": 800,
    "\u2581\u13e9\u13ad\u13ef": 801,
    "\u2581\u13d7\u13a7\u13b8\u13ac": 802,
    "\u2581\u13d9\u13f1\u13d7\u13e2": 803,
    "\u2581\u13e3\u13b3\u13a9": 804,
    "\u2581\u13a1\u13b6\u13d7": 805,
    "\u2581\u13a4\u13e0\u13f1\u13c9": 806,
    "\u2581\u13a0\u13d9\u13af": 807,
    "\u13ea": 808,
    "\u13d9\u13a2\u13f3\u13cd\u13d7": 809,
    "\u2581\u13f1\u13d3": 810,
    "\u2581\u13a6\u13b6\u13af\u13cd\u13d7": 811,
    "\u13af\u13cd\u13d7": 812,
    "\u2581\u13a4\u13e3\u13d8\u13c2": 813,
    "\u2581\u13a4\u13da\u13b5\u13cd\u13ac": 814,
    "\u2581\u13a4\u13be\u13d3": 815,
    "\u2581\u13a2\u13f3\u13be\u13b5\u13cd\u13d3\u13c1\u13d7": 816,
    "\u2581\u13a2\u13f3\u13be\u13db\u13c1\u13d7": 817,
    "\u2581\u13af\u13cd\u13a6\u13cd\u13aa\u13af": 818,
    "\u2581\u13c2\u13da\u13f3\u13aa\u13db\u13be": 819,
    "\u2581\u13e7\u13ec\u13f0\u13c2": 820,
    "\u2581\u13a0\u13c2\u13f2\u13cd\u13a9": 821,
    "\u2581\u13e3\u13c1\u13e2\u13d4\u13c5\u13af": 822,
    "\u13c1\u13b4": 823,
    "\u2581\u13e3\u13d9\u13d3": 824,
    "\u2581\u13a4\u13c2\u13d9\u13d3": 825,
    "\u2581\u13e9\u13cd\u13db": 826,
    "\u2581\u13f1\u13e5\u13a6\u13d4\u13ad": 827,
    "\u2581\u13e5\u13bb": 828,
    "\u2581\u13a4\u13cd\u13c6\u13c2\u13a9\u13d7": 829,
    "\u2581\u13b6\u13d7": 830,
    "\u2581\u13be\u13a5\u13c2\u13a8": 831,
    "\u13cd\u13d3\u13ef": 832,
    "\u2581\u13ac\u13e9\u13c2": 833,
    "\u2581\u13a4\u13a6\u13d4": 834,
    "\u2581\u13a4\u13b5\u13cd\u13c6\u13b8\u13d7": 835,
    "\u2581\u13a0\u13c2\u13c5": 836,
    "\u2581\u13a4\u13d0\u13f1": 837,
    "\u2581\u13a4\u13e9": 838,
    "\u13d7\u13cd\u13a8\u13cd\u13d7": 839,
    "\u2581\u13ac\u13a9": 840,
    "\u2581\u13f1\u13e3": 841,
    "\u2581\u13a4\u13ea": 842,
    "\u2581\u13a4\u13b5\u13cd\u13d3\u13f4\u13d7": 843,
    "\u2581\u13a4\u13ea\u13d8": 844,
    "\u2581\u13f1\u13a6\u13b5\u13cd\u13d9\u13d3": 845,
    "\u2581\u13b5\u13a0": 846,
    "\u2581\u13a4\u13b5\u13cd\u13c8\u13d7": 847,
    "\u2581\u13a0\u13e5\u13c5\u13cf\u13d3\u13cd\u13d7": 848,
    "\u2581\u13c3\u13ca": 849,
    "\u2581\u13a2\u13e5\u13cd\u13a6\u13ef": 850,
    "\u2581\u13ce\u13a6": 851,
    "\u13d4\u13c2": 852,
    "\u2581\u13a4\u13c1\u13a6": 853,
    "\u2581\u13a4\u13a7\u13b5\u13e8\u13af": 854,
    "\u2581\u13e7\u13d3\u13cf": 855,
    "\u2581\u13a4\u13be\u13dd\u13a2": 856,
    "\u2581\u13a0\u13a6\u13d4\u13b2": 857,
    "\u13ca": 858,
    "\u2581\u13a4\u13cd\u13aa\u13cd": 859,
    "\u2581\u13f2": 860,
    "\u2581\u13a2\u13e4\u13b2\u13a2": 861,
    "\u13d7\u13ad": 862,
    "\u2581\u13d5\u13a4": 863,
    "--": 864,
    "\u2581\u13a2\u13e4\u13b2": 865,
    "\u13db\u13a2": 866,
    "\u13c1\u13d7": 867,
    "\u2581\u13a0\u13b9\u13f1": 868,
    "\u2581\u13c4\u13ea\u13ce\u13b8": 869,
    "\u2581\u13a0\u13f4\u13cd\u13a9\u13c2": 870,
    "\u2581\u13d3\u13a9": 871,
    "\u2581\u13a4\u13b7\u13e4": 872,
    "\u2581\u13b5\u13c7\u13a9": 873,
    "\u2581\u13da\u13c5\u13d3\u13d2": 874,
    "\u2581\u13d2\u13a6\u13d4": 875,
    "\u2581\u13a4\u13a6\u13be\u13cd\u13db": 876,
    "\u2581\u13a6\u13b6\u13c7": 877,
    "\u2581\u13cf\u13cc": 878,
    "\u2581\u13da\u13be\u13d9\u13a5": 879,
    "\u2581\u13e5\u13c4\u13cd\u13d7": 880,
    "\u2581\u13ac\u13d9\u13d7": 881,
    "\u2581\u13a6\u13b8\u13b3\u13d7\u13e3": 882,
    "\u13b8\u13ad": 883,
    "\u13cd\u13d4\u13c1\u13a2": 884,
    "\u13dd": 885,
    "\u13cd\u13d8": 886,
    "\u2581\u13a1\u13b2": 887,
    "\u2581\u13e1\u13ac": 888,
    "\u2581\u13e7\u13d3": 889,
    "\u2581\u13db\u13a6": 890,
    "\u2581\u13a2\u13ef\u13db\u13c1\u13d7": 891,
    "\u2581\u13ce\u13d3\u13c2": 892,
    "\u2581\u13d4\u13b4\u13b2\u13a6": 893,
    "\u2581\u13e5\u13aa\u13ea\u13b3": 894,
    "\u2581\u13a0\u13c2\u13f3\u13e9\u13c1\u13a6": 895,
    "\u2581\u13e7\u13d3\u13c6\u13d9\u13a9": 896,
    "\u2581\u13a0\u13c2\u13f4\u13eb": 897,
    "\u2581\u13a6\u13da\u13a2\u13e3": 898,
    "\u2581\u13f1\u13da": 899,
    "\u2581\u13a2\u13ac\u13c1\u13b8\u13af": 900,
    "\u2581\u13a4\u13f2\u13b1\u13ce\u13a2": 901,
    "\u2581\u13ed\u13b7\u13e4": 902,
    "\u2581\u13a0\u13d7\u13d4\u13cd\u13d7": 903,
    "\u2581\u13a2\u13f3\u13b5\u13cd\u13d3\u13c1\u13d7": 904,
    "\u2581\u13ac\u13c5\u13a2": 905,
    "\u2581\u13c4\u13be": 906,
    "\u13d6": 907,
    "\u13af\u13cd\u13d7\u13f1": 908,
    "\u2581\u13a8\u13b5": 909,
    "\u13cf\u13f4\u13eb\u13ad": 910,
    "\u2581\u13a4\u13ec\u13e2": 911,
    "\u2581\u13a4\u13c2\u13cd\u13a6\u13c5\u13e8": 912,
    "\u2581\u13a4\u13db\u13a6\u13c1": 913,
    "\u2581\u13c4\u13b5\u13cd\u13d4\u13c2\u13d9\u13b8": 914,
    "\u2581\u13a6\u13f0": 915,
    "\u2581\u13d5\u13af": 916,
    "\u2581\u13c8\u13b5\u13a9": 917,
    "\u2581\u13a8\u13bb\u13b5": 918,
    "\u2581\u13e7\u13b8\u13eb\u13cd\u13d3\u13c1\u13af": 919,
    "\u2581\u13c5\u13d3\u13a6\u13b5\u13cd\u13d4\u13c2": 920,
    "\u2581\u13d4\u13b3\u13cd\u13aa\u13af": 921,
    "\u2581\u13a2\u13e3\u13b5\u13c5\u13df": 922,
    "\u2581\u13a6\u13c5\u13cd\u13d9\u13d7": 923,
    "\u2581\u13d5\u13e7\u13ac": 924,
    "\u2581\u13a4\u13be\u13d3\u13e4\u13b5\u13db": 925,
    "\u2581\u13af\u13c5\u13cf\u13d3\u13cd\u13d7": 926,
    "\u2581\u13a2\u13e5\u13d9\u13d3": 927,
    "\u2581\u13e7\u13be\u13db\u13d0\u13c5\u13af": 928,
    "\u2581\u13a2\u13e3\u13db\u13c1\u13d7\u13f1": 929,
    "\u2581\u13a4\u13d5\u13ef\u13d9\u13d7": 930,
    "\u2581\u13a6\u13da\u13a2": 931,
    "\u2581\u13d9\u13f1": 932,
    "\u13d9\u13b8\u13a2": 933,
    "\u2581\u13c2\u13d7": 934,
    "\u2581\u13a4\u13c2\u13aa\u13b2": 935,
    "\u2581\u13a4\u13b6\u13a9\u13b8": 936,
    "\u2581\u13ac\u13d7\u13cd\u13ac": 937,
    "\u13a3\u13cd\u13d3": 938,
    "\u2581\u13c2\u13af\u13f0\u13c3": 939,
    "\u2581\u13a4\u13db\u13be": 940,
    "\u2581\u13d3\u13be": 941,
    "\u2581\u13d0\u13a3\u13c1\u13b3": 942,
    "\u2581\u13a0\u13c2\u13a8\u13ef": 943,
    "\u2581\u13a4\u13a9\u13e8\u13db": 944,
    "\u2581\u13e5\u13c2\u13ac\u13c5": 945,
    "\u2581\u13a2\u13ef\u13db\u13c1\u13af": 946,
    "\u2581\u13a0\u13d5\u13b3": 947,
    "\u2581\u13a2\u13e8\u13a8\u13f3\u13a2": 948,
    "\u2581\u13c2\u13a6\u13b5\u13cd\u13d7\u13ad": 949,
    "\u2581\u13a6\u13b8\u13c9\u13d9\u13d7": 950,
    "\u2581\u13a4\u13b4\u13c2\u13d9\u13b4\u13a2": 951,
    "\u2581\u13a6\u13c1\u13a6": 952,
    "\u2581\u13a2\u13ef\u13cd\u13d7": 953,
    "\u2581\u13ed\u13b6\u13ce\u13a2": 954,
    "\u2581\u13a1\u13ae\u13a2": 955,
    "\u2581\u13a4\u13c2\u13f2": 956,
    "\u2581\u13be\u13af\u13f3\u13c9": 957,
    "\u2581\u13a6\u13b5\u13c9\u13a9\u13c1": 958,
    "\u2581\u13a4\u13aa\u13ae": 959,
    "\u2581\u13a4\u13b7\u13e8\u13a9": 960,
    "\u2581\u13a4\u13ea\u13c5\u13ce": 961,
    "\u2581\u13c2\u13a6\u13a5\u13c9": 962,
    "\u2581\u13d3\u13e5": 963,
    "\u2581\u13a4\u13c1\u13e4\u13b8": 964,
    "\u2581\u13a6\u13ec\u13c2\u13cd\u13ac": 965,
    "\u13a0\u13d7\u13d4\u13cd\u13d7": 966,
    "\u13a8\u13f3\u13af\u13f3": 967,
    "\u13d7\u13a6\u13c5\u13cc\u13d7": 968,
    "\u13e1": 969,
    "\u2581\u13d7\u13a8\u13d2": 970,
    "\u13a7\u13d4\u13ae\u13a2": 971,
    "\u2581\u13c2\u13ac\u13be\u13db\u13a2": 972,
    "\u2581\u13a4\u13b5\u13cd\u13c6\u13d7\u13cd\u13d7": 973,
    "\u2581\u13e7\u13c2\u13be\u13eb": 974,
    "\u2581\u13a0\u13c2\u13cd\u13a6\u13be": 975,
    "\u2581\u13a4\u13be\u13eb": 976,
    "\u2581\u13d3\u13c6\u13b4\u13b7": 977,
    "\u2581\u13c5\u13ac\u13e9\u13ea\u13ce\u13b8\u13a9": 978,
    "\u2581\u13a2\u13e5\u13a6\u13d4\u13ad": 979,
    "\u2581\u13cf\u13d3\u13c1\u13b8\u13af": 980,
    "\u2581\u13a0\u13c2\u13c3\u13af\u13b5\u13d9\u13af": 981,
    "\u2581\u13a0\u13d3\u13c1\u13af": 982,
    "\u2581\u13a4\u13df\u13af\u13f3": 983,
    "\u2581\u13a6\u13db\u13a6": 984,
    "\u2581\u13a0\u13e4\u13af": 985,
    "\u2581\u13e4\u13ad": 986,
    "\u2581\u13a2\u13ac\u13e9": 987,
    "\u2581\u13a2\u13a6\u13d3": 988,
    "\u2581\u13a0\u13c2\u13a6\u13d4\u13b2\u13a2": 989,
    "\u13c7": 990,
    "\u13b2\u13a6": 991,
    "\u2581\u13a0\u13d3\u13c5\u13d3\u13d7\u13cd\u13d7": 992,
    "\u2581\u13a6\u13d3\u13c1": 993,
    "\u2581\u13aa\u13ea\u13b8": 994,
    "\u2581\u13c5\u13e9\u13d3\u13b4\u13c3": 995,
    "\u2581\u13e5\u13d3": 996,
    "\u2581\u13f4\u13eb\u13c9": 997,
    "\u2581\u13a0\u13c2\u13ec\u13c2\u13cd\u13ac": 998,
    "\u2581\u13c4\u13e9\u13c1\u13b4": 999,
    "\u2581\u13c2\u13a6\u13b5\u13cd\u13d7\u13cd\u13ac": 1000,
    "\u2581\u13a0\u13e0\u13c1\u13d7": 1001,
    "\u2581\u13d3\u13bf\u13e9": 1002,
    "\u2581\u13c5\u13d3\u13f3\u13b6\u13d2\u13af": 1003,
    "\u2581\u13a7\u13c3\u13af\u13f0\u13a9": 1004,
    "\u2581\u13a1\u13c9\u13af\u13f3": 1005,
    "\u2581\u13a0\u13a6\u13d8\u13cf\u13d7\u13e2": 1006,
    "\u2581\u13e7\u13f3\u13aa\u13d7": 1007,
    "\u2581\u13d7\u13f0\u13b8\u13af": 1008,
    "\u2581\u13a4\u13d4\u13b3\u13ec\u13af\u13cd\u13d7": 1009,
    "\u2581\u13a6\u13b7\u13e8\u13ad": 1010,
    "\u2581\u13c5\u13c3\u13af": 1011,
    "\u2581\u13a0\u13b9\u13df": 1012,
    "\u2581\u13a0\u13c6\u13db\u13c5": 1013,
    "\u2581\u13be\u13cd\u13a9\u13ef\u13c9": 1014,
    "\u2581\u13a4\u13be\u13b5": 1015,
    "\u2581\u13aa\u13ea\u13b8\u13a2": 1016,
    "\u2581\u13e7\u13c2\u13cd\u13d7": 1017,
    "\u13db\u13a9": 1018,
    "\u2581\u13a4\u13c1\u13e8\u13a9": 1019,
    "\u2581\u13c4\u13db\u13c1\u13b8": 1020,
    "\u2581\u13a6\u13d9\u13a8": 1021,
    "---": 1022,
    "\u2581\u13c4\u13cd\u13d5": 1023,
    "\u2581\u13a4\u13d5\u13d8\u13f4\u13cc\u13d7\u13d2": 1024,
    "\u2581\u13d5\u13a4\u13d9\u13a5": 1025,
    "\u2581\u13d3\u13f3\u13d3\u13b4\u13c5": 1026,
    "\u2581\u13a0\u13cd\u13db": 1027,
    "\u2581\u13a6\u13d9\u13ac": 1028,
    "\u13c5\u13cf\u13db": 1029,
    "\u2581\u13d7\u13cf\u13d3\u13b5": 1030,
    "\u2581\u13a3\u13e3\u13b5\u13c5\u13df": 1031,
    "\u2581\u13e4\u13a9\u13cf\u13c2": 1032,
    "\u2581\u13c6\u13c2\u13c6": 1033,
    "\u2581\u13af\u13b8\u13a2\u13f4": 1034,
    "\u2581\u13a2\u13d3\u13d3\u13c5\u13df": 1035,
    "\u2581\u13a8\u13e5\u13b8\u13c9\u13d7": 1036,
    "\u2581\u13d7\u13a8\u13a6\u13c1\u13b6\u13d7": 1037,
    "\u2581\u13a0\u13c8\u13bb\u13b4\u13a9": 1038,
    "\u2581\u13d7\u13c7\u13e5": 1039,
    "\u2581\u13a4\u13a6\u13b5\u13cd\u13d7": 1040,
    "\u2581\u13e9\u13b6\u13cf": 1041,
    "\u2581\u13ac\u13e9\u13d5\u13c1\u13b4\u13a2": 1042,
    "\u2581\u13be\u13a9\u13ea\u13ce\u13b8\u13a9": 1043,
    "\u2581\u13a0\u13d3\u13eb": 1044,
    "\u2581\u13d5\u13e3\u13d3\u13c5\u13db\u13a2": 1045,
    "\u2581\u13e6\u13f0\u13c2": 1046,
    "\u2581\u13e7\u13e9": 1047,
    "\u2581\u13a0\u13c2\u13aa\u13a2": 1048,
    "\u13f1\u13a9": 1049,
    "\u2581\u13aa\u13cd\u13d3": 1050,
    "\u13a7\u13c2": 1051,
    "\u2581\u13e7\u13ac": 1052,
    "\u2581\u13af\u13aa": 1053,
    "\u2581\u13aa\u13b3": 1054,
    "\u2581\u13aa\u13ea\u13b5\u13af": 1055,
    "\u201d": 1056,
    "\u13cd\u13aa\u13af": 1057,
    "\u2581\u13a0\u13ef\u13d9": 1058,
    "\u13e8\u13a9": 1059,
    "\u2581\u13da\u13b4\u13c5": 1060,
    "\u13a2\u13cd\u13d7\u13f1": 1061,
    "\u13c1\u13ad": 1062,
    "\u2581\u13a6\u13b8": 1063,
    "\u2581\u13d5\u13e3\u13d9\u13a5": 1064,
    "\u2581\u13be\u13c3": 1065,
    "\u2581\u13a2\u13e3\u13e4\u13b5": 1066,
    "\u2581\u13d8\u13c5\u13cf\u13d3\u13cd\u13d7": 1067,
    "\u2581\u13c4\u13c2\u13ac\u13eb\u13f3\u13cc\u13d5\u13a9": 1068,
    "\u2581\u13a5\u13d3\u13b5": 1069,
    "\u2581\u13a2\u13b3\u13ef": 1070,
    "\u2581\u13a4\u13be\u13b5\u13cd\u13d5\u13b8\u13d9\u13d7": 1071,
    "\u2581\u13d7\u13d8\u13c2\u13d9\u13af": 1072,
    "\u2581\u13d0\u13b3": 1073,
    "\u2581\u13a0\u13c1\u13d9\u13af": 1074,
    "\u2581\u13ce\u13a6\u13e8": 1075,
    "\u2581\u13a4\u13e9\u13d2\u13af\u13f3": 1076,
    "\u2581\u13d7\u13e3\u13e4\u13b5\u13a6": 1077,
    "\u2581\u13a4\u13d9\u13af\u13f3\u13d2": 1078,
    "\u2581\u13a4\u13d5\u13c5\u13af": 1079,
    "\u2581\u13d7\u13a8": 1080,
    "\u2581\u13ac\u13d7\u13cd\u13a9": 1081,
    "\u2581\u13a0\u13a6\u13d7": 1082,
    "\u2581\u13a0\u13cd\u13d3\u13f1": 1083,
    "\u13db\u13c1\u13d7": 1084,
    "\u2581\u13c1": 1085,
    "\u2581\u13ed\u13c2": 1086,
    "\u13d9\u13af": 1087,
    "\u2581\u13a3\u13d3\u13b8\u13a2": 1088,
    "\u13a6\u13c5\u13af\u13db": 1089,
    "\u2581\u13a0\u13c2\u13d3": 1090,
    "\u13a2\u13f3\u13cd\u13d7": 1091,
    "e": 1092,
    "\u2581\u13a0\u13b5\u13cd\u13da\u13b6": 1093,
    "\u2581\u13f1\u13e5": 1094,
    "\u2581\u13a5\u13a9": 1095,
    "\u13cc\u13db": 1096,
    "\u2581\u13a0\u13e5\u13b8\u13f1": 1097,
    "\u13a9\u13cd\u13d7": 1098,
    "\u2581\u13c4\u13e9\u13c1\u13b8": 1099,
    "\u2581\u13d9\u13db": 1100,
    "\u2581\u13a4\u13b6\u13d0\u13c5": 1101,
    "\u2581\u13a0\u13a6\u13f4\u13b5": 1102,
    "\u2581\u13a0\u13a7\u13b5\u13a2": 1103,
    "\u2581\u13a0\u13f0\u13d9\u13b3\u13db\u13d7": 1104,
    "\u2581\u13e9\u13cf\u13d3\u13c2": 1105,
    "\u2581\u13d3\u13cf\u13b3\u13db": 1106,
    "\u2581\u13da\u13ec\u13e2\u13d4\u13c5\u13a9": 1107,
    "\u2581\u13d7\u13d3\u13c5\u13d9": 1108,
    "\u2581\u13a0\u13a8\u13f3\u13e3": 1109,
    "\u2581\u13f1\u13c4\u13cd\u13d7": 1110,
    "\u2581\u13d7\u13a8\u13eb": 1111,
    "\u2581\u13e7\u13c2\u13b8\u13eb\u13cd\u13d3\u13c1\u13d7\u13f1": 1112,
    "\u2581\u13a0\u13b9\u13f0\u13b5": 1113,
    "\u2581\u13a4\u13cd\u13a6\u13c3\u13b5": 1114,
    "\u2581\u13e5\u13c1\u13ac\u13a2": 1115,
    "\u2581\u13a0\u13e4": 1116,
    "\u2581\u13c2\u13e5": 1117,
    "\u2581\u13a4\u13f2\u13b1\u13d2\u13af": 1118,
    "\u2581\u13a8\u13c2": 1119,
    "\u2581\u13d7\u13a9": 1120,
    "\u2581\u13a2\u13ac": 1121,
    "\u2581\u13aa\u13a9": 1122,
    "\u2581\u13ab\u13e2\u13d7": 1123,
    "\u13af\u13cd\u13d9\u13d7": 1124,
    "\u13cd\u13d9": 1125,
    "\u13a0\u13c2\u13b3\u13cd\u13d3\u13b8": 1126,
    "\u2581\u13a7\u13c1\u13ac\u13a2": 1127,
    "\u2581\u13d1": 1128,
    "\u2581\u13da\u13c1\u13e4\u13b4": 1129,
    "\u2581\u13d7\u13a6\u13b8\u13c9\u13d7": 1130,
    "\u13cd\u13ac\u13be": 1131,
    "\u2581\u13be\u13c2\u13a5\u13c9": 1132,
    "\u2581\u13a0\u13b2\u13a2": 1133,
    "\u2581\u13da\u13d9\u13a5\u13a2": 1134,
    "\u13a8\u13d2": 1135,
    "\u13c5\u13a2": 1136,
    "\u2581\u13a0\u13e6\u13f4": 1137,
    "\u2581\u13d7\u13d3\u13b4\u13c2\u13cd\u13ac": 1138,
    "\u2581\u13a3\u13cf": 1139,
    "\u2581\u13a4\u13ec\u13b8": 1140,
    "t": 1141,
    "\u2581\u13d7\u13a6\u13ab\u13cd\u13db\u13d7": 1142,
    "\u2581\u13cd\u13c8\u13cd\u13d3": 1143,
    "\u2581\u13a0\u13cd\u13c6\u13a8\u13c2": 1144,
    "\u2581\u13b5\u13eb": 1145,
    "\u2581\u13a8\u13e5\u13c5\u13cf\u13d3\u13cd\u13d7": 1146,
    "\u2581\u13a7\u13c2\u13a9\u13d3": 1147,
    "\u2581\u13a6\u13ec\u13c2\u13cd\u13a9": 1148,
    "\u2581\u13da\u13ec\u13e2\u13c5\u13a9": 1149,
    "\u2581\u13a2\u13a9\u13d9\u13d3": 1150,
    "\u2581\u13be\u13cd\u13a6\u13c5\u13be": 1151,
    "\u2581\u13a4\u13d7\u13b4\u13a9": 1152,
    "\u2581\u13a7\u13c3\u13ae\u13cd\u13a9": 1153,
    "\u2581\u13cd\u13d4\u13ef": 1154,
    "\u2581\u13a6\u13b6\u13d9\u13d7": 1155,
    "\u2581\u13a4\u13be\u13c1\u13b3\u13a9": 1156,
    "\u2581\u13a4\u13c5\u13cc": 1157,
    "\u2581\u13a0\u13e2\u13d7\u13f1": 1158,
    "\u13ec": 1159,
    "\u2581\u13a0\u13f2\u13a9": 1160,
    "\u13d5\u13a2": 1161,
    "\u2581\u13a4\u13d3\u13c5\u13d8\u13f3": 1162,
    "\u2581\u13a4\u13c2\u13e5": 1163,
    "\u2581\u13a4\u13c5\u13df": 1164,
    "\u13c5\u13d2": 1165,
    "\u2581\u13f1\u13d7\u13e5": 1166,
    "\u2581\u13a2\u13f3\u13cd\u13d7\u13c9": 1167,
    "\u2581\u13a6\u13b6": 1168,
    "\u2581\u13a4\u13b5\u13cd\u13d7": 1169,
    "\u2581\u13c2\u13d3": 1170,
    "\u13d2\u13ad": 1171,
    "\u2581\u13a6\u13c5\u13af\u13db": 1172,
    "\u2581\u13d5\u13a8": 1173,
    "\u2581\u13e5\u13d5": 1174,
    "\u2581\u13a1\u13b2\u13a2": 1175,
    "\u2581\u13a4\u13d3\u13c5\u13d6": 1176,
    "\u2581\u13a0\u13cd\u13a6\u13be": 1177,
    "\u2581\u13c5\u13d3": 1178,
    "\u2581\u13f1\u13d7": 1179,
    "\u2581\u13d3\u13ac": 1180,
    "\u2581\u13a0\u13d4\u13b4\u13d2": 1181,
    "\u13a0\u13b4": 1182,
    "\u2581\u13eb\u13e3": 1183,
    "\u2581\u13e6\u13a9": 1184,
    "\u2581\u13d3\u13d3\u13bf\u13e9\u13cd\u13db": 1185,
    "\u2581\u13a4\u13c2\u13e3\u13d6": 1186,
    "\u2581\u13c2\u13da\u13a9\u13e8\u13c2\u13d2": 1187,
    "\u13da\u13b5\u13cd\u13ac\u13be": 1188,
    "\u2581\u13d3\u13c6\u13d9\u13a5": 1189,
    "\u2581\u13a2\u13a6\u13a6\u13db": 1190,
    "\u2581\u13d7\u13a7\u13c3\u13d7": 1191,
    "\u2581\u13e7\u13b8\u13eb\u13cd\u13d3\u13c1\u13d7": 1192,
    "\u2581\u13e9\u13da\u13b5\u13cf": 1193,
    "\u2581\u13a6\u13b7\u13ef\u13cd\u13d7": 1194,
    "\u2581\u13aa\u13cd\u13da": 1195,
    "\u2581\u13e7\u13ef\u13d6\u13be": 1196,
    "\u2581\u13e7\u13c3\u13f0\u13c2": 1197,
    "\u2581\u13d3\u13a6\u13b7\u13e5": 1198,
    "\u2581\u13c5\u13db\u13a9\u13c5\u13cf\u13db": 1199,
    "\u2581\u13c2\u13a6\u13ea\u13cd\u13a8\u13a2": 1200,
    "\u2581\u13e7\u13c2\u13e2\u13a9": 1201,
    "\u2581\u13d7\u13c2\u13a6\u13d9\u13b5": 1202,
    "\u2581\u13be\u13ce\u13b5\u13d7": 1203,
    "\u2581\u13a0\u13a9\u13c5\u13cf\u13d9\u13af": 1204,
    "\u2581\u13af\u13b8\u13af\u13f3": 1205,
    "\u2581\u13ac\u13c2\u13d7\u13f3": 1206,
    "\u2581\u13a0\u13c2\u13a9\u13cf": 1207,
    "\u2581\u13a4\u13cd\u13c6\u13b8\u13b2": 1208,
    "\u13b4\u13af\u13d0\u13d7": 1209,
    "\u2581\u13d7\u13a7\u13c3\u13d7\u13f1": 1210,
    "\u2581\u13a9": 1211,
    "\u2581\u13a0\u13a9\u13cf": 1212,
    "\u2581\u13a4\u13c2\u13b7\u13e8\u13a9": 1213,
    "\u2581\u13ad\u13be\u13be": 1214,
    "\u2581\u13a4\u13e5\u13b8\u13a2": 1215,
    "\u2581\u13a0\u13bc": 1216,
    "\u2581\u13a2\u13a6\u13d8": 1217,
    "\u13a6\u13d4\u13b2\u13be": 1218,
    "\u2581\u13ed\u13b7\u13e4\u13a2": 1219,
    "\u13cd\u13c9": 1220,
    "\u13c1\u13af": 1221,
    "\u2581\u13a2\u13ac\u13c1\u13d7": 1222,
    "\u13a0\u13cb\u13cc": 1223,
    "\u2581\u13e9\u13ef": 1224,
    "\u2581\u13e5\u13e3": 1225,
    "\u13cd\u13a6\u13c5\u13a2\u13cd\u13d7": 1226,
    "\u2581\u13ae": 1227,
    "\u13c5\u13be": 1228,
    "\u2581\u13a4\u13f2\u13a2": 1229,
    "\u2581\u13a4\u13cd\u13a6\u13c5\u13e8": 1230,
    "\u13a9\u13ce": 1231,
    "\u2581\u13a2\u13e4\u13be": 1232,
    "\u2581\u13a0\u13b4\u13ec": 1233,
    "\u2581\u13a6\u13db\u13ac": 1234,
    "\u13e4\u13cd\u13d7": 1235,
    "\u2581\u13a6\u13b3\u13a8\u13f4": 1236,
    "\u2581\u13d5\u13a6\u13da\u13b2": 1237,
    "\u2581\u13d7\u13a9\u13a6\u13f4\u13b5\u13a8": 1238,
    "\u2581\u13c2\u13e3\u13db\u13c1\u13b8": 1239,
    "\u2581\u13da\u13c2\u13b8\u13eb\u13cd\u13d3\u13c1\u13b2": 1240,
    "\u13f0\u13b5": 1241,
    "\u2581\u13a6\u13d3\u13c5\u13d6\u13cd\u13ac": 1242,
    "\u2581\u13da\u13be\u13d3\u13c5\u13db": 1243,
    "\u13b2\u13cf": 1244,
    "\u2581\u13a4\u13d5\u13c5": 1245,
    "\u13cd\u13ac\u13a9": 1246,
    "\u2581\u13a6\u13c4\u13b8": 1247,
    "\u2581\u13e5\u13a6": 1248,
    "\u2581\u13c7\u13c2": 1249,
    "\u2581\u13a4\u13be\u13b5\u13cd\u13d3\u13f4\u13d7": 1250,
    "\u2581\u13a2\u13e5\u13c8": 1251,
    "c": 1252,
    "\u2581\u13a2\u13f3\u13e9\u13ab\u13d7": 1253,
    "\u2581\u13d2\u13a7\u13d4": 1254,
    "\u2581\u13a2\u13f3\u13d3\u13b4\u13a9": 1255,
    "\u2581\u13c4\u13c3\u13af\u13f3\u13d2\u13be": 1256,
    "\u2581\u13a2\u13e5\u13e1\u13f1": 1257,
    "\u2581\u13a6\u13b5\u13c6\u13cd\u13aa\u13af": 1258,
    "\u2581\u13da\u13d9\u13a1\u13a2": 1259,
    "\u2581\u13d9\u13b4\u13db": 1260,
    "\u2581\u13eb\u13e5\u13a2\u13a6": 1261,
    "\u2581\u13ce\u13b7": 1262,
    "\u2581\u13a0\u13c2\u13e3\u13b3\u13a9": 1263,
    "\u2581\u13a4\u13cd\u13a6\u13ce\u13d7": 1264,
    "\u2581\u13a2\u13e4\u13ef\u13d4\u13ae\u13cd\u13d7": 1265,
    "\u2581\u13a2\u13cc\u13ef": 1266,
    "\u2581\u13a2\u13d7\u13a6\u13d4\u13ad": 1267,
    "\u2581\u13c5\u13d3\u13f3\u13b5\u13cd\u13d9\u13d4\u13c5\u13a9": 1268,
    "\u2581\u13c4\u13ac\u13eb\u13f3\u13cc\u13d5\u13a9": 1269,
    "\u2581\u13a2\u13e8\u13f2\u13ce\u13ad": 1270,
    "\u2581\u13d7\u13b9\u13d7": 1271,
    "\u2581\u13a0\u13c2\u13aa\u13d5\u13cd\u13a9": 1272,
    "\u2581\u13a4\u13af\u13d0\u13d7": 1273,
    "\u2581\u13e7\u13d9\u13d3\u13c6\u13d3": 1274,
    "\u2581\u13d7\u13be": 1275,
    "\u2581\u13a0\u13cf\u13be\u13cc\u13c2": 1276,
    "\u2581\u13be\u13c2\u13a5\u13a2": 1277,
    "\u2581\u13a0\u13ab\u13f4\u13d9\u13d7": 1278,
    "\u2581\u13d7\u13a6\u13aa\u13d7\u13f1": 1279,
    "\u2581\u13a6\u13be\u13f0\u13af\u13cd\u13d7": 1280,
    "\u2581\u13a4\u13be\u13c4\u13aa\u13eb\u13d2\u13af": 1281,
    "\u2581\u13a4\u13be\u13eb\u13f1": 1282,
    "\u2581\u13a0\u13c6\u13db\u13a6\u13c5\u13a9": 1283,
    "\u13b5\u13a6": 1284,
    "\u2581\u13d7\u13e6\u13e2\u13d7": 1285,
    "\u2581\u13a6\u13ec\u13c2\u13af\u13cd\u13d7": 1286,
    "\u2581\u13c1\u13b3": 1287,
    "\u13c1\u13b3\u13c5\u13af": 1288,
    "\u2581\u13ed\u13f4\u13b4\u13a2": 1289,
    "\u2581\u13e9\u13cd\u13d7": 1290,
    "\u2581\u13c9\u13b3\u13c3": 1291,
    "\u2581\u13a0\u13d7\u13ad": 1292,
    "\u2581\u13e7\u13ea": 1293,
    "\u2581\u13c2\u13d5": 1294,
    "\u13a1\u13b5": 1295,
    "\u2581\u13a4\u13ea\u13bf\u13a2": 1296,
    "\u13cd\u13c6": 1297,
    "\u2581\u13f4\u13a9": 1298,
    "\u2581\u13eb\u13a6": 1299,
    ",]": 1300,
    "\u2581\u13d7\u13e6": 1301,
    "\u2581\u13a2\u13e4\u13af": 1302,
    "\u2581\u13c5\u13db": 1303,
    "\u2581\u13a0\u13aa": 1304,
    "\u2581\u13c4\u13cd\u13db\u13a2": 1305,
    "\u2581\u13a1\u13d8": 1306,
    "\u13d7\u13cd\u13aa": 1307,
    "\u13c1\u13b3": 1308,
    "\u13c2\u13cf": 1309,
    "\u13a1\u13a2": 1310,
    "\u13a6\u13d8": 1311,
    "\u2581\u13da\u13aa\u13ae": 1312,
    "\u2581\u13c5\u13d7\u13a6\u13b5\u13cd\u13d9\u13d7\u13cd\u13aa": 1313,
    "\u13d5\u13be": 1314,
    "\u13a4\u13c1\u13b3\u13c5\u13af": 1315,
    "\u2581\u13a0\u13c2\u13c3\u13ae\u13cd\u13ac": 1316,
    "\u2581\u13e7\u13ea\u13c5\u13d2": 1317,
    "\u2581\u13a4\u13c3\u13f4\u13ac": 1318,
    "\u2581\u13d3\u13d3\u13c1\u13b8": 1319,
    "\u2581\u13af\u13ef": 1320,
    "\u13b2\u13cd\u13a9": 1321,
    "\u13be\u13dd\u13a2": 1322,
    "\u13db\u13ac\u13a6": 1323,
    "\u2581\u13a1\u13c9\u13d7": 1324,
    "\u2581\u13a4\u13c2\u13ec\u13c2\u13af\u13cd\u13d7": 1325,
    "\u13b6\u13af": 1326,
    "\u2581Cr": 1327,
    "\u2581\u13a2\u13f3\u13be\u13db\u13bf\u13d5\u13a9": 1328,
    "\u2581\u13cd\u13a6\u13da\u13a9": 1329,
    "\u2581\u13c2\u13e5\u13ea\u13ad": 1330,
    "\u2581\u13ce\u13a9\u13b5": 1331,
    "\u2581\u13e7\u13d3\u13d5\u13d2\u13db": 1332,
    "\u2581\u13d7\u13c2\u13ad\u13c4\u13b8\u13af": 1333,
    "\u2581\u13a1\u13c8\u13cc": 1334,
    "\u2581\u13d4\u13b7\u13e3": 1335,
    "\u2581\u13a0\u13e6\u13ad\u13f4": 1336,
    "\u2581\u13a0\u13a9\u13b5\u13ef": 1337,
    "\u2581\u13cc\u13aa\u13c2\u13a8": 1338,
    "\u2581\u13cd\u13a9\u13c3\u13b2\u13cf": 1339,
    "\u2581\u13a2\u13b3\u13aa": 1340,
    "\u2581\u13d7\u13aa\u13ea\u13b5\u13cd\u13a9": 1341,
    "\u2581\u13a4\u13e9\u13d9\u13af\u13f4\u13d3": 1342,
    "\u2581\u13a2\u13f3\u13d3\u13b4\u13c5\u13db": 1343,
    "\u2581\u13a4\u13c2\u13ac\u13eb\u13f3\u13cc\u13d5\u13a9": 1344,
    "\u2581\u13a2\u13f3\u13e9\u13c2\u13d0\u13d7\u13f1": 1345,
    "\u2581\u13a2\u13f3\u13e9\u13c1\u13d7\u13f1": 1346,
    "\u2581\u13a4\u13f0\u13af": 1347,
    "\u2581\u13d9\u13f0": 1348,
    "\u2581\u13a4\u13ec\u13d7\u13a8": 1349,
    "\u2581\u13d2\u13ae\u13f1\u13e3": 1350,
    "\u2581\u13a2\u13ac\u13c1\u13af": 1351,
    "\u2581\u13d3\u13ef\u13a2": 1352,
    "\u2581\u13a6\u13e5": 1353,
    ")": 1354,
    "\u2581\u13c6": 1355,
    "\u2581\u13a7\u13b8\u13a2": 1356,
    "\u2581\u13da\u13b8\u13eb\u13cd\u13d3\u13c1\u13b2\u13a2": 1357,
    "\u13d9\u13a9": 1358,
    "\u13c1\u13b4\u13a2": 1359,
    "\u2581\u13da\u13be\u13d3\u13c5\u13db\u13a2": 1360,
    "\u2581\u13a4\u13be\u13b5\u13a2": 1361,
    "\u13d4\u13c5\u13ad": 1362,
    "\u2581\u13c4\u13db\u13c1\u13b4\u13a2": 1363,
    "\u2581\u13a6\u13b8\u13b3\u13d7\u13f3": 1364,
    "\u2581\u13a1\u13d3": 1365,
    "\u2581\u13a4\u13be\u13d3\u13e1\u13ac\u13a2": 1366,
    "\u2581\u13e3\u13e4\u13b5\u13a6": 1367,
    "\u13d1\u13f4\u13be": 1368,
    "\u2581\u13be\u13cd\u13a9\u13c9": 1369,
    "\u2581\u13aa\u13af\u13d3": 1370,
    "\u13c1\u13b2": 1371,
    "\u2581\u13c2\u13a6\u13d7": 1372,
    "\u2581\u13a8\u13a6": 1373,
    "\u2581\u13f4\u13a6": 1374,
    "\u2581\u13a4\u13d3\u13c5\u13d6\u13d7": 1375,
    "\u13c1\u13b8\u13a9": 1376,
    "\u2581\u13d7\u13a7\u13bf\u13e9\u13db\u13cd\u13d7\u13f1": 1377,
    "\u2581\u13ef\u13c6": 1378,
    "\u2581\u13f1\u13c2": 1379,
    "\u2581\u13d7\u13a6\u13d3": 1380,
    "\u13e4\u13a2": 1381,
    "\u2581\u13be\u13cd\u13a9\u13f4": 1382,
    "\u2581\u13be\u13c2": 1383,
    "\u2581\u13af\u13b8": 1384,
    "\u2581\u13a6\u13c3\u13b8\u13a5\u13cd\u13ac": 1385,
    "\u2581\u13a7\u13b3\u13e9\u13d7\u13d2": 1386,
    "\u2581\u13d7\u13a6\u13da\u13b2": 1387,
    "\u13a6\u13d4\u13ad": 1388,
    "\u2581\u13a2\u13e6\u13af\u13f3\u13d2": 1389,
    "\u2581\u13a0\u13e4\u13b5\u13cd\u13db": 1390,
    "\u13e5\u13cc": 1391,
    "\u2581\u13a6\u13a8": 1392,
    "\u2581\u13a8\u13b3": 1393,
    "\u2581\u13ed\u13b6\u13d2": 1394,
    "\u2581\u13a0\u13c6\u13da\u13b5": 1395,
    "\u2581\u13a6\u13c1\u13cc\u13a2": 1396,
    "\u2581\u13d9\u13af": 1397,
    "\u13a2\u13cd\u13d7": 1398,
    "\u2581\u13a4\u13c5\u13d2\u13c9": 1399,
    "\u2581\u13ed\u13be": 1400,
    "\u2581\u13e8\u13d7\u13d3\u13b4\u13b2\u13cd\u13a6": 1401,
    "\u2581\u13e7\u13d5\u13d8\u13f4\u13d3": 1402,
    "\u2581\u13d7\u13df\u13b6\u13cd\u13d4\u13c5\u13af": 1403,
    "\u2581\u13d7\u13d6\u13b5\u13d9": 1404,
    "\u2581\u13a4\u13aa\u13cf\u13d3": 1405,
    "\u2581\u13e6\u13d3\u13c2": 1406,
    "\u2581\u13a0\u13c2\u13eb\u13c5": 1407,
    "\u2581\u13f1\u13c5\u13d7\u13a6\u13b5\u13cd\u13d9\u13d7\u13ad": 1408,
    "\u2581\u13a2\u13f3\u13be\u13b5\u13cd\u13d9\u13d7\u13f1": 1409,
    "\u2581\u13a4\u13a6\u13be\u13cd\u13d3": 1410,
    "\u2581\u13e7\u13aa\u13b3": 1411,
    "\u2581\u13a2\u13ef\u13be\u13db\u13c1\u13af": 1412,
    "\u2581\u13cd\u13c6": 1413,
    "\u2581\u13ac\u13e9\u13df\u13cd\u13d7": 1414,
    "\u2581\u13a0\u13e5\u13cd\u13db": 1415,
    "\u2581\u13aa\u13af\u13d7\u13f3": 1416,
    "\u2581\u13a0\u13b5\u13cd\u13d5\u13b8\u13d9\u13d7": 1417,
    "\u2581\u13a4\u13da\u13b5\u13cd\u13a8\u13cd\u13d7": 1418,
    "\u2581\u13a0\u13c3": 1419,
    "\u2581\u13a4\u13da\u13b8\u13d7": 1420,
    "\u2581\u13a2\u13e3\u13e4\u13b5\u13a6": 1421,
    "\u2581\u13e3\u13c1\u13b3": 1422,
    "\u2581\u13e7\u13cd\u13d7": 1423,
    "\u2581\u13a2\u13a6\u13a6\u13d8": 1424,
    "\u2581\u13d7\u13c6\u13e4\u13b5\u13a6": 1425,
    "\u13c1\u13b5": 1426,
    "\u13aa\u13af": 1427,
    "\u2581\u13a1\u13b5\u13cd\u13d7": 1428,
    "\u13db\u13a6": 1429,
    "\u2581\u13d3\u13e3": 1430,
    "\u2581\u13e7\u13d3\u13c3": 1431,
    "\u13d5\u13b5": 1432,
    "\u2581\u13a4\u13c2\u13e3\u13d4": 1433,
    "\u2581\u13a3\u13c2\u13f1": 1434,
    "\u2581\u13d9\u13d3": 1435,
    "\u2581\u13d7\u13c6": 1436,
    "\u2581\u13c3\u13e5": 1437,
    "\u13aa\u13d7": 1438,
    "\u13ad\u13c2": 1439,
    "\u2581\u13af\u13a0\u13cd\u13a9\u13c2": 1440,
    "\u13c1\u13ae\u13cd\u13d7": 1441,
    "\u13c9\u13c3": 1442,
    "\u2581\u13a0\u13d3\u13c1\u13b8\u13a2": 1443,
    "\u2581\u13c4\u13ea\u13d2\u13a2": 1444,
    "\u2581\u13f1\u13e8": 1445,
    "\u2581\u13c4\u13b5\u13cd\u13d4\u13c5\u13a2": 1446,
    "\u2581\u13ef\u13a9": 1447,
    "\u2581\u13de\u13a6": 1448,
    "\u2581\u13be\u13be\u13db\u13c1\u13b2": 1449,
    "\u13b7\u13a6": 1450,
    "\u2581\u13ac\u13e9\u13be": 1451,
    "\u2581\u13da\u13b3\u13cd\u13ac": 1452,
    "\u2581\u13a4\u13c1\u13e8\u13a2": 1453,
    "\u2581\u13a4\u13a8\u13d3\u13b5\u13f4": 1454,
    "\u2581\u13a4\u13c5\u13cf\u13f4": 1455,
    "\u2581\u13ed\u13ef\u13c5\u13ae": 1456,
    "\u2581\u13a0\u13be\u13a2\u13d2": 1457,
    "\u2581\u13a4\u13c2\u13b7\u13e8": 1458,
    "\u13a9\u13b6": 1459,
    "\u2581\u13d5\u13ad\u13b7\u13a8": 1460,
    "\u2581\u13a6\u13c5\u13c5": 1461,
    "\u2581\u13ed\u13b7\u13e8": 1462,
    "\u2581\u13d5\u13a9": 1463,
    "\u2581\u13a4\u13d2\u13a2": 1464,
    "\u2581\u13e7\u13be\u13cd\u13d7": 1465,
    "\u2581\u13d7\u13e5\u13be\u13eb": 1466,
    "\u2581\u13d0\u13d3\u13bb": 1467,
    "\u13cc\u13b3\u13d3": 1468,
    "\u13cd\u13d4\u13c2": 1469,
    "\u2581\u13a4\u13b7\u13af\u13cd\u13d7": 1470,
    "\u2581\u13d7\u13aa": 1471,
    "\u2581\u13a4\u13c2\u13f4\u13cd\u13d7": 1472,
    "\u2581\u13a0\u13a6\u13d8\u13cf": 1473,
    "\u2581Perry": 1474,
    "\u2581\u13e7\u13a6\u13be\u13ee": 1475,
    "\u13da\u13d3\u13b4\u13cd\u13d9\u13d7": 1476,
    "\u2581\u13a5\u13f3\u13a9": 1477,
    "\u2581\u13a0\u13b5\u13cd\u13d4\u13f4\u13d7": 1478,
    "\u2581\u13a4\u13a9\u13e8\u13d3": 1479,
    "\u2581\u13a7\u13c2\u13a9\u13db": 1480,
    "\u2581\u13a4\u13be\u13f0\u13af\u13cd\u13d7": 1481,
    "\u2581\u13d7\u13d5\u13f2\u13d7": 1482,
    "\u2581\u13a4\u13eb\u13ef": 1483,
    "\u2581\u13a4\u13c2\u13a9\u13ac": 1484,
    "\u2581\u13a4\u13ec\u13e2\u13d4\u13c5\u13a9": 1485,
    "\u2581\u13e7\u13be\u13a9\u13b8\u13d7": 1486,
    "\u2581\u13d7\u13d3\u13d8\u13c2\u13d9\u13af": 1487,
    "\u2581\u13a4\u13c1\u13ab\u13e5\u13db": 1488,
    "\u2581\u13a0\u13c6\u13c1\u13b3\u13c5\u13af": 1489,
    "\u2581\u13a0\u13b5\u13cd\u13aa\u13b8\u13d4\u13c5\u13af": 1490,
    "\u2581\u13f3\u13da\u13b5\u13cd\u13a8": 1491,
    "\u2581\u13a0\u13cd\u13da\u13d7": 1492,
    "\u2581\u13a8\u13b5\u13cd\u13ac": 1493,
    "\u2581\u13c2\u13d7\u13a5": 1494,
    "\u2581\u13da\u13d3\u13d8\u13be\u13a5\u13a2": 1495,
    "\u2581\u13a4\u13c2\u13cd\u13c6\u13c2\u13aa\u13ce\u13a2": 1496,
    "\u2581\u13a2\u13f3\u13be\u13db\u13c1\u13d7\u13f1": 1497,
    "\u2581\u13f0": 1498,
    "\u2581\u13a4\u13cd\u13c6\u13c2\u13aa\u13d7\u13f3": 1499,
    "\u2581\u13d3\u13c6": 1500,
    "\u2581\u13a3\u13cf\u13c9": 1501,
    "\u2581\u13c4\u13db\u13c1\u13b8\u13a9": 1502,
    "\u2581\u13d7\u13a8\u13d2\u13a2": 1503,
    "\u2581\u13a4\u13bf": 1504,
    "\u2581\u13a4\u13be\u13b5\u13aa": 1505,
    "\u13b5\u13cd\u13d9\u13d7": 1506,
    "\u2581\u13c2\u13a6\u13ea\u13cd\u13ac\u13a2": 1507,
    "\u2581\u13a0\u13eb\u13c5": 1508,
    "\u2581\u13a0\u13a9\u13cd\u13d7": 1509,
    "\u13b4\u13c2": 1510,
    "\u13a1\u13af": 1511,
    "\u13a1\u13d7\u13f1": 1512,
    "\u2581\u13a2\u13e7": 1513,
    "\u2581\u13c5\u13a9\u13c1": 1514,
    "\u2581\u13f1\u13ac": 1515,
    "\u2581\u13f3\u13be": 1516,
    "\u2581\u13c1\u13b0": 1517,
    "\u2581\u13eb\u13d3": 1518,
    "\u2581\u13be\u13a5\u13a2": 1519,
    "\u2581\u13a4\u13c1\u13e8\u13af": 1520,
    "\u13b5\u13cd\u13d7": 1521,
    "n": 1522,
    "\u2581\u13a0\u13cf\u13f4\u13eb\u13c3": 1523,
    "\u2581\u13e3\u13be": 1524,
    "\u2581\u13da\u13f3\u13aa\u13db\u13a2": 1525,
    "\u2581\u13a2\u13f3\u13a2": 1526,
    "\u13d7\u13cd\u13a8\u13a2": 1527,
    "\u13b6\u13db": 1528,
    "\u2581\u13a4\u13e5\u13b8": 1529,
    "\u2581\u13a4\u13ea\u13b5\u13af\u13cd\u13d7": 1530,
    "\u2581\u13a4\u13d5\u13c1\u13b8": 1531,
    "\u2581\u13a0\u13f0\u13d9\u13b3\u13db": 1532,
    "\u2581\u13a1\u13d9\u13b2": 1533,
    "\u2581\u13a0\u13be\u13d3": 1534,
    "\u2581\u13a4\u13d3\u13c2\u13b5\u13a8": 1535,
    "\u13d7\u13f3": 1536,
    "\u2581\u13a4\u13b5\u13c1\u13e8": 1537,
    "\u2581\u13d5\u13e1\u13ac": 1538,
    "\u2581\u13d3\u13c1\u13e9\u13d7\u13d2": 1539,
    "\u2581\u13d5\u13a8\u13cc\u13d7\u13d2": 1540,
    "\u2581\u13a4\u13d3\u13c5\u13d6\u13b4": 1541,
    "\u2581\u13a0\u13c6\u13da\u13b5\u13cd\u13ac": 1542,
    "\u2581\u13a4\u13d3\u13f4\u13cd\u13d7": 1543,
    "\u2581\u13b7\u13c8\u13c2": 1544,
    "\u2581\u13d7\u13c2\u13b5\u13a0\u13c5\u13af\u13db": 1545,
    "\u2581\u13a2\u13c8\u13ac\u13a2": 1546,
    "\u2581\u13b9\u13cf\u13d9\u13c2": 1547,
    "\u2581\u13de\u13a9\u13f3": 1548,
    "\u2581\u13a0\u13be\u13d3\u13c5\u13df": 1549,
    "\u2581\u13ac\u13d4\u13c2\u13d3\u13cd\u13d7": 1550,
    "\u2581\u13a0\u13aa\u13c4": 1551,
    "\u2581\u13cc\u13ba\u13b5\u13f1": 1552,
    "\u2581\u13a0\u13d9\u13b3\u13c5\u13cd\u13d7": 1553,
    "\u2581\u13a9\u13df": 1554,
    "\u2581\u13d7\u13a6\u13c5\u13d9\u13d7": 1555,
    "\u2581\u13a0\u13eb\u13c4\u13e3": 1556,
    "\u2581\u13a0\u13df\u13b6\u13cd\u13d7": 1557,
    "\u2581\u13a2\u13f3\u13ea\u13c5\u13cd\u13d7": 1558,
    "\u2581\u13a2\u13e8\u13d7\u13cd\u13a8\u13cd\u13d7": 1559,
    "\u2581\u13e7\u13cd\u13c6\u13c5\u13be": 1560,
    "\u2581\u13a1\u13cf\u13f1": 1561,
    "\u2581\u13a4\u13ec\u13da\u13af": 1562,
    "\u2581\u13a4\u13ec\u13da\u13af\u13f3": 1563,
    "\u2581\u13a0\u13e5\u13be\u13dd\u13a2": 1564,
    "\u2581\u13a4\u13b6\u13d2\u13cd\u13d7": 1565,
    "\u2581\u13e7\u13d3\u13b4\u13c5\u13d3": 1566,
    "\u2581\u13a0\u13d3\u13af": 1567,
    "\u2581\u13ce\u13b3\u13f1": 1568,
    "\u2581\u13a4\u13c2\u13f4\u13cd\u13d7\u13f1": 1569,
    "\u2581\u13d4\u13b5\u13e7\u13c8": 1570,
    "\u13a4\u13c5": 1571,
    "\u2581\u13a3\u13c1": 1572,
    "\u2581\u13da\u13ef": 1573,
    "\u13b6\u13d7": 1574,
    "\u2581\u13e4\u13ae\u13a2": 1575,
    "\u2581\u13a0\u13c1\u13ae\u13a2": 1576,
    "\u2581\u13da\u13b4\u13c1\u13a2": 1577,
    "\u2581\u13f0\u13ad": 1578,
    "\u2581\u13a0\u13c1\u13ad": 1579,
    "\u2581\u13d0\u13a2\u13f1": 1580,
    "\u2581\u13f1\u13d7\u13e3": 1581,
    "\u2581\u13a0\u13ac": 1582,
    "\u2581\u13a2\u13f3\u13be": 1583,
    "\u13e8\u13af": 1584,
    "\u2581\u13d3\u13e8": 1585,
    "\u2581\u13a6\u13cd\u13a9\u13b8\u13a2": 1586,
    "\u2581\u13a0\u13e5\u13b8\u13c9\u13d7": 1587,
    "\u13cd\u13ca": 1588,
    "\u13cd\u13d7\u13cd\u13ac": 1589,
    "\u2581\u13a4\u13a8\u13f3\u13af": 1590,
    "\u2581\u13d9\u13af\u13f1": 1591,
    "\u2581\u13a4\u13ec\u13b5": 1592,
    "\u2581\u13a2\u13d3": 1593,
    "\u13cd\u13d4": 1594,
    "\u2581\u13a0\u13dc": 1595,
    "\u2581\u13a0\u13ce\u13a9": 1596,
    "\u2581\u13da\u13b4\u13c1": 1597,
    "\u2581\u13a4\u13c1\u13c5\u13ce": 1598,
    "\u2581\u13eb\u13ac\u13e9": 1599,
    "\u2581\u13a4\u13b8": 1600,
    "\u13db\u13d7": 1601,
    "\u13db\u13ad": 1602,
    "a": 1603,
    "\u13e0\u13be\u13cd\u13d7": 1604,
    "\u13b8\u13c9\u13d9\u13d7": 1605,
    "\u13b8\u13c9\u13d7\u13f3": 1606,
    "\u2581\u13d4\u13b5\u13ad": 1607,
    "\u2581\u13c5\u13d3\u13f3": 1608,
    "\u2581\u13a0\u13c2\u13d9\u13be\u13a5": 1609,
    "\u2581\u13d7\u13d3": 1610,
    "\u13c5\u13d2\u13a9": 1611,
    "\u2581\u13d7\u13e3\u13d3\u13c5\u13d9": 1612,
    "\u13a0\u13ef": 1613,
    "\u2581\u13ac\u13c6": 1614,
    "\u2581\u13e8\u13cd\u13a9\u13c3": 1615,
    "\u2581\u13a4\u13f0\u13e4": 1616,
    "\u2581\u13a0\u13c6\u13a7\u13db": 1617,
    "\u2581\u13d3\u13e0\u13af\u13cd\u13db": 1618,
    "\u2581\u13a0\u13c1\u13d9\u13b2": 1619,
    "\u2581\u13ed\u13b6\u13ce": 1620,
    "\u2581\u13a4\u13d3\u13c5\u13ce": 1621,
    "\u13db\u13af": 1622,
    "\u13cd\u13d5\u13b8\u13d7": 1623,
    "\u2581\u13d5\u13a6\u13b6\u13d7": 1624,
    "\u2581\u13a4\u13d3\u13b5": 1625,
    "\u2581\u13cf\u13a9\u13bb": 1626,
    "\u2581\u13a0\u13e5\u13a6\u13d8\u13d7\u13cd\u13d7": 1627,
    "\u13a2\u13f3": 1628,
    "\u2581\u13a4\u13d3\u13c5": 1629,
    "\u13be\u13cf": 1630,
    "\u2581\u13a4\u13cd\u13aa\u13b5": 1631,
    "\u2581\u13aa\u13ea\u13b3": 1632,
    "\u2581\u13a0\u13be\u13db": 1633,
    "\u2581\u13a4\u13d5\u13b0\u13af\u13cd\u13d7": 1634,
    "\u13d0\u13a2": 1635,
    "\u2581\u13a2\u13f3\u13db\u13c1\u13d7": 1636,
    "y": 1637,
    "\u2581\u13a6\u13b7\u13ef\u13cd\u13d8": 1638,
    "\u2581\u13ac\u13e9\u13cd\u13d3\u13e9\u13db\u13ce\u13a2": 1639,
    "\u2581\u13a2\u13cf\u13ba\u13b5": 1640,
    "\u2581\u13a4\u13b5\u13d7\u13e8": 1641,
    "ett": 1642,
    "\u2581\u13c5\u13d3\u13f3\u13c2\u13b6\u13d2\u13af": 1643,
    "\u2581\u13d1\u13be\u13d9\u13d3\u13c6\u13cd\u13d7": 1644,
    "\u2581\u13a2\u13ef\u13c5\u13d9": 1645,
    "\u2581\u13d7\u13ac\u13d4\u13c2\u13d3\u13cd\u13d7": 1646,
    "\u2581\u13a2\u13a6\u13ea\u13cd\u13d7": 1647,
    "\u2581\u13c2\u13ac\u13e9\u13ea\u13ce\u13b8\u13a9": 1648,
    "\u2581\u13d7\u13f0\u13d9\u13b3\u13db\u13d7": 1649,
    "\u2581\u13a0\u13d6\u13b5\u13d9": 1650,
    "\u2581\u13ad\u13e9\u13e7": 1651,
    "\u2581\u13da\u13d8\u13c5\u13ce": 1652,
    "\u2581\u13a4\u13b4\u13c2\u13d9\u13b8": 1653,
    "\u2581\u13d5\u13b9\u13cd\u13a6": 1654,
    "\u2581\u13a0\u13c2\u13a8\u13be\u13c2": 1655,
    "\u2581\u13a0\u13eb\u13d2\u13d7\u13f1": 1656,
    "\u2581\u13d7\u13cd\u13d3\u13d3\u13c5\u13df": 1657,
    "\u2581\u13a6\u13c2\u13a6\u13d4": 1658,
    "\u2581\u13e3\u13d3\u13b5\u13a2": 1659,
    "\u13e9\u13db\u13b2": 1660,
    "\u2581\u13a0\u13c2\u13a6\u13d3\u13ad": 1661,
    "\u2581\u13cc\u13be\u13f1": 1662,
    "\u2581\u13e5\u13da\u13d9\u13a5": 1663,
    "\u2581\u13a4\u13c1\u13b5\u13e4\u13a2": 1664,
    "\u2581\u13a4\u13be\u13c1\u13b3\u13c5\u13af": 1665,
    "\u2581\u13a0\u13aa\u13d9\u13d7": 1666,
    "\u2581\u13d9\u13f1\u13e8": 1667,
    "\u2581\u13a4\u13be\u13e0\u13be\u13cd\u13d7": 1668,
    "\u2581\u13d7\u13e6\u13e2\u13d9\u13d7": 1669,
    "\u2581\u13a4\u13be\u13f0\u13af\u13cd\u13d7\u13f3": 1670,
    "\u2581\u13ce\u13bb": 1671,
    "\u2581\u13a4\u13cf\u13e9": 1672,
    "\u2581\u13a4\u13ec\u13da\u13e8": 1673,
    "\u2581\u13c1\u13b2\u13be": 1674,
    "\u2581\u13ae\u13a6": 1675,
    "\u2581\u13c2\u13a6\u13b5\u13cd\u13d3": 1676,
    "\u2581\u13f1\u13c2\u13a6\u13b5\u13cd\u13d3": 1677,
    "\u2581\u13a0\u13a9\u13f0\u13b8\u13ad": 1678,
    "\u2581\u13a4\u13c2\u13af\u13cd\u13d7\u13f1": 1679,
    "\u2581\u13a0\u13cd\u13aa\u13af\u13c1": 1680,
    "\u2581\u13a4\u13df\u13cd\u13d3": 1681,
    "\u2581\u13a2\u13ac\u13d3": 1682,
    "\u2581\u13a4\u13b7\u13af\u13cd\u13d7\u13f1": 1683,
    "\u2581\u13c8\u13b3": 1684,
    "\u2581\u13be\u13c2\u13ea\u13cd\u13ac\u13a9": 1685,
    "\u2581\u13a2\u13ac\u13d2": 1686,
    "\u2581\u13a0\u13b1\u13cd\u13d5": 1687,
    "\u2581\u13d7\u13c2\u13c5\u13cc\u13d7": 1688,
    "\u2581\u13a0\u13c1\u13a9": 1689,
    "\u2581\u13eb\u13d7": 1690,
    "\u2581\u13c4\u13be\u13db\u13c5\u13a2": 1691,
    "\u13a8\u13f3\u13ce\u13cd\u13d7": 1692,
    "\u2581\u13a2\u13be": 1693,
    "\u2581\u13d3\u13c1\u13e9\u13d7\u13d2\u13a2": 1694,
    "\u2581\u13d5\u13ad\u13b7\u13a8\u13a2": 1695,
    "\u13e0": 1696,
    "\u2581\u13d9\u13a9": 1697,
    "\u2581\u13a6\u13c2": 1698,
    "\u2581\u13a1\u13d7": 1699,
    "\u2581\u13d5\u13a6\u13db": 1700,
    "\u2581\u13e3\u13c9": 1701,
    "\u13c3\u13ae\u13ad": 1702,
    "\u2581\u13a8\u13f4\u13a2": 1703,
    "\u13a5\u13cd\u13ac": 1704,
    "\u13e9\u13db\u13d7": 1705,
    "\u2581\u13d3\u13be\u13d3": 1706,
    "\u13a5\u13a2": 1707,
    "\u13b3\u13c5\u13af": 1708,
    "\u13aa\u13b5\u13f0\u13cd\u13a9": 1709,
    "\u2581\u13a0\u13d9": 1710,
    "\u2581\u13a0\u13a9\u13b5\u13f2\u13a2\u13cd\u13d7": 1711,
    "\u13d1": 1712,
    "\u2581\u13af\u13b3": 1713,
    "\u2581\u13e7\u13c5": 1714,
    "\u2581\u13d7\u13e4": 1715,
    "\u2581\u13a4\u13c2\u13c1": 1716,
    "\u2581\u13a4\u13c2\u13e0\u13f1": 1717,
    ",)": 1718,
    "\u2581\u13a0\u13d7": 1719,
    "\u2581\u13d5\u13e3\u13d3": 1720,
    "\u2581\u13a4\u13be\u13d9\u13b4\u13b0\u13d2": 1721,
    "\u2581\u13a4\u13c7\u13d3\u13b8": 1722,
    "\u13c9\u13f0\u13c3": 1723,
    "\u13a6\u13db": 1724,
    "\u2581\u13d7\u13d7": 1725,
    "\u2581\u13a6\u13e5\u13ef": 1726,
    "\u2581\u13a2\u13a8": 1727,
    "\u13a1\u13ad": 1728,
    "\u2581\u13e7\u13be\u13d3": 1729,
    "\u13c5\u13df": 1730,
    "\u2581\u13d4\u13b5\u13c1\u13a2": 1731,
    "\u2581\u13da\u13b8\u13eb\u13cd\u13d3\u13c1\u13b8": 1732,
    "\u2581\u13ef\u13be": 1733,
    "\u13bf": 1734,
    "\u2581\u13a4\u13db": 1735,
    "\u2581\u13a6\u13c1\u13b2": 1736,
    "\u2581\u13c1\u13b3\u13a9": 1737,
    "\u2581\u13c4\u13c2": 1738,
    "\u13b8\u13be": 1739,
    "\u2581\u13a4\u13da\u13b5\u13cd\u13a8": 1740,
    "\u13b5\u13f1": 1741,
    "\u2581\u13d5\u13e5\u13b8\u13eb\u13cd\u13d3\u13c1\u13b2": 1742,
    "\u2581\u13ed\u13f4\u13b4": 1743,
    "\u2581\u13d9\u13d3\u13b8": 1744,
    "\u2581\u13c4\u13be\u13db\u13c5": 1745,
    "\u2581\u13a1\u13ae": 1746,
    "\u2581\u13d7\u13c1\u13b2": 1747,
    "\u13ef\u13d6\u13c5": 1748,
    "\u13b2\u13cd\u13ac": 1749,
    "\u2581\u13c5\u13d7\u13a6\u13b5\u13cd\u13d9\u13d7": 1750,
    "\u13b5\u13cd\u13c6\u13d7\u13cd\u13a9": 1751,
    "\u2581\u13a4\u13c1\u13b8": 1752,
    "\u13b1": 1753,
    "\u2581\u13a4\u13db\u13c1\u13a2": 1754,
    "\u2581\u13a1\u13a9": 1755,
    "\u13db\u13c5": 1756,
    "\u2581\u13a0\u13be\u13d3\u13be\u13cf\u13c2\u13d9\u13af": 1757,
    "\u2581\u13ef\u13a6\u13d4\u13ae": 1758,
    "\u2581\u13a0\u13b5\u13f0\u13be": 1759,
    "\u2581\u13a6\u13e3\u13c4\u13b3": 1760,
    "\u2581\u13a0\u13e8\u13cd\u13d9\u13d7": 1761,
    "\u2581\u13e7\u13a6\u13d2\u13cd\u13d7": 1762,
    "\u2581\u13a2\u13ac\u13e9\u13b5\u13cd\u13d9\u13d7": 1763,
    "\u2581\u13a0\u13d2\u13ac": 1764,
    "\u2581\u13a2\u13e3\u13b5\u13cd\u13d9\u13d7\u13f1": 1765,
    "\u2581\u13d7\u13e5\u13f2\u13b5": 1766,
    "\u2581\u13d7\u13c2\u13cf\u13d7": 1767,
    "\u2581\u13a0\u13e4\u13b7\u13a9": 1768,
    "\u2581\u13a0\u13c2\u13a9\u13b7\u13eb": 1769,
    "\u2581\u13e7\u13b3\u13cf\u13d5\u13c2": 1770,
    "\u2581\u13e5\u13c4\u13ea\u13ce\u13a2": 1771,
    "\u2581\u13eb\u13a6\u13b7\u13a9": 1772,
    "\u2581\u13e5\u13cd\u13da": 1773,
    "\u2581\u13d7\u13c2\u13f0\u13b8": 1774,
    "\u2581\u13a4\u13be\u13b3\u13c5\u13af": 1775,
    "\u2581\u13c4\u13be\u13d3\u13b4\u13d2": 1776,
    "\u2581\u13ab\u13ab": 1777,
    "\u13b5\u13f0\u13a2\u13b6\u13af\u13cd\u13d7": 1778,
    "\u13ef\u13c5\u13db": 1779,
    "\u2581\u13a4\u13f2\u13b1\u13af\u13cd\u13d7\u13f1": 1780,
    "\u2581\u13a4\u13b5\u13cd\u13a8\u13db": 1781,
    "\u2581\u13cf\u13f2": 1782,
    "\u2581\u13ad\u13eb\u13c2\u13e8": 1783,
    "\u2581\u13a2\u13f3\u13cd\u13d8": 1784,
    "\u2581\u13a7\u13c3\u13ae\u13d7": 1785,
    "\u2581\u13a0\u13be\u13d3\u13c5\u13d6\u13cd\u13ac": 1786,
    "\u2581\u13da\u13be\u13d3": 1787,
    "\u2581\u13ab\u13b4": 1788,
    "\u2581\u13a4\u13f2\u13e8": 1789,
    "\u2581\u13ed\u13c2\u13b6\u13ce\u13a2": 1790,
    "\u2581\u13a4\u13c2\u13e3\u13db\u13a9": 1791,
    "\u2581\u13d7\u13a9\u13cf": 1792,
    "\u13a6\u13d9\u13c3": 1793,
    "\u2581\u13a0\u13aa\u13e9\u13db\u13d7": 1794,
    "\u2581\u13a0\u13c6\u13da\u13b5\u13ad": 1795,
    "\u2581\u13c2\u13aa\u13af\u13b8\u13be\u13c9": 1796,
    "\u13f4\u13eb": 1797,
    "\u2581\u13e5\u13a8\u13f3\u13a2": 1798,
    "\u2581\u13f1\u13a8\u13d0\u13a2": 1799,
    "\u2581\u13c2\u13a6\u13b5\u13cd\u13d9\u13d7": 1800,
    "\u2581\u13d9\u13a6": 1801,
    "\u2581\u13a8\u13b5\u13a0": 1802,
    "\u2581\u13a1\u13ae\u13cd\u13d7": 1803,
    "\u13b3\u13bb": 1804,
    "\u2581\u13da\u13b8\u13eb\u13cd\u13d3\u13c1\u13b8\u13a2": 1805,
    "\u2581\u13a0\u13c1": 1806,
    "\u2581\u13a0\u13c1\u13d9\u13b2\u13a2": 1807,
    "\u2581\u13a2\u13a6\u13e4\u13b5\u13a6": 1808,
    "\u2581\u13a1\u13d9\u13b2\u13a2": 1809,
    "\u2581\u13aa\u13a8": 1810,
    "\u2581\u13d7\u13c1\u13b2\u13a2": 1811,
    "\u2581\u13a4\u13d3\u13c5\u13c5": 1812,
    "\u2581\u13a0\u13d3\u13c1\u13d7": 1813,
    "\u2581\u13a1\u13be": 1814,
    "\u2581\u13d0": 1815,
    "\u2581\u13c2\u13d9\u13d3\u13f3": 1816,
    "\u2581\u13c2\u13aa\u13af\u13b8\u13be": 1817,
    "\u2581\u13a4\u13c2\u13b7\u13e4\u13a2": 1818,
    "\u2581\u13c2\u13e5\u13a5\u13a2": 1819,
    "\u2581\u13cd\u13a9\u13ef": 1820,
    "\u13a6\u13d7\u13d3": 1821,
    "\u2581\u13a0\u13c2\u13d0": 1822,
    "\u2581\u13d5\u13ac\u13e9": 1823,
    "\u2581\u13e3\u13da": 1824,
    "\u2581\u13a0\u13cb\u13d2\u13c9": 1825,
    "\u2581\u13cc": 1826,
    "\u2581\u13e4\u13e3": 1827,
    "\u13e7\u13c8\u13cd\u13d7": 1828,
    ";]": 1829,
    "\u13b2\u13cd\u13a8\u13cd\u13d7": 1830,
    "\u2581\u13aa\u13af\u13cd\u13a9\u13c2": 1831,
    "\u13e2\u13d9\u13d7": 1832,
    "\u13d9\u13b4\u13b0\u13af\u13cd\u13d7": 1833,
    "\u13b3\u13d7": 1834,
    "\u2581\u13a3\u13e3": 1835,
    "\u13c2\u13b8": 1836,
    "\u2581\u13da\u13ea": 1837,
    "\u2581\u13e7\u13be\u13c4\u13ec": 1838,
    "\u2581\u13ce": 1839,
    "\u13b9": 1840,
    "\u2581\u13ce\u13b3": 1841,
    "\u13a6\u13b6\u13c1\u13db": 1842,
    "\u2581\u13a0\u13c6\u13db\u13a6\u13c5": 1843,
    "\u2581\u13a1\u13b3\u13ea": 1844,
    "\u2581\u13a2\u13f3\u13ea": 1845,
    "\u2581\u13d3\u13eb\u13d2": 1846,
    "\u2581\u13ef\u13c2": 1847,
    "\u13b5\u13cd\u13a6\u13cd\u13d9\u13db": 1848,
    "\u2581\u13ed\u13c2\u13b7\u13e8": 1849,
    "\u13e9\u13ac\u13d8": 1850,
    "\u2581\u13da\u13c1\u13b4": 1851,
    "\u2581\u13c4\u13db\u13c5": 1852,
    "\u2581\u13a4\u13f4": 1853,
    "\u2581\u13a1\u13dd\u13ea": 1854,
    "\u2581\u13d7\u13a7\u13c3\u13a9\u13cd\u13d7": 1855,
    "\u2581\u13a4\u13d3\u13c5\u13db": 1856,
    "\u2581\u13a0\u13db\u13aa\u13d7": 1857,
    "\u2581\u13e5\u13e5": 1858,
    "\u2581\u13a0\u13d7\u13c6\u13b8\u13d5\u13f2": 1859,
    "\u2581\u13ac\u13cd\u13a6\u13a2\u13cd\u13d3\u13a9": 1860,
    "\u2581\u13c2\u13a6\u13c5\u13af\u13ce\u13cd\u13d7": 1861,
    "\u2581\u13a0\u13c2\u13cc\u13da\u13cf": 1862,
    "\u2581\u13c4\u13dc\u13cf\u13db\u13d2\u13be": 1863,
    "\u2581\u13cc\u13ef\u13c2": 1864,
    "\u2581\u13a4\u13b5\u13aa\u13b2\u13cd\u13d7": 1865,
    "\u2581\u13d7\u13c1\u13b6\u13d9\u13d7": 1866,
    "\u2581\u13e7\u13c3\u13d1\u13b6\u13e8\u13af": 1867,
    "\u2581\u13e5\u13d4\u13a6": 1868,
    "\u2581\u13a4\u13b6\u13d2\u13cd\u13d4\u13c5\u13af": 1869,
    "\u2581\u13e7\u13be\u13e6\u13af\u13cd\u13d7": 1870,
    "\u2581\u13a2\u13e8\u13d4\u13f2\u13ce\u13ad": 1871,
    "\u2581\u13e7\u13be\u13b3\u13cf\u13d5\u13c2": 1872,
    "\u2581\u13b3\u13cf\u13b3": 1873,
    "\u2581\u13a2\u13f3\u13d3\u13a8\u13db": 1874,
    "\u2581\u13a2\u13a9\u13cd\u13d5\u13b5\u13cd\u13a9": 1875,
    "\u2581\u13a2\u13e3\u13d3\u13d9\u13b5\u13cd\u13d7\u13cd\u13a8\u13cd\u13d7": 1876,
    "\u2581\u13be\u13db\u13c1\u13ae\u13cd\u13d7": 1877,
    "\u2581\u13a4\u13da\u13eb\u13db": 1878,
    "\u2581\u13eb\u13c2\u13a6\u13b5\u13cd\u13d3": 1879,
    "\u2581\u13eb\u13c4\u13d2\u13b8": 1880,
    "\u2581\u13a3\u13a6\u13c1\u13b3\u13c5\u13af": 1881,
    "\u2581\u13a4\u13f4\u13e3": 1882,
    "\u2581\u13a3\u13cc\u13c2": 1883,
    "\u2581\u13a4\u13be\u13b4\u13c5\u13ae": 1884,
    "\u2581\u13a6\u13f0\u13cc\u13d7": 1885,
    "\u2581\u13e4\u13c8": 1886,
    "\u2581\u13a0\u13a6\u13d8\u13ef": 1887,
    "\u2581\u13a0\u13c2\u13a6\u13d4\u13bf\u13a2": 1888,
    "\u2581\u13ac\u13aa\u13e9\u13db\u13d7": 1889,
    "\u2581\u13a0\u13b5\u13ae\u13b5\u13cd\u13d7": 1890,
    "\u2581\u13d7\u13ef\u13d6\u13be": 1891,
    "\u2581\u13a2\u13a6\u13ea\u13db": 1892,
    "\u2581\u13a4\u13b5\u13d1\u13eb\u13d3": 1893,
    "\u2581\u13a4\u13a6\u13c3\u13e9": 1894,
    "\u2581\u13e7\u13be\u13d3\u13b5\u13a2": 1895,
    "\u13db\u13f3\u13a8\u13d7": 1896,
    "\u2581\u13a2\u13be\u13d3": 1897,
    "\u2581\u13a2\u13f3\u13c5\u13c1\u13d7\u13f1": 1898,
    "\u2581\u13aa\u13a8\u13f1": 1899,
    "\u2581\u13a4\u13b4\u13eb\u13cd\u13d4\u13c5": 1900,
    "\u2581\u13a4\u13ec\u13e2\u13c5\u13af": 1901,
    "\u13d4\u13f2\u13ce\u13b4": 1902,
    "\u2581\u13a0\u13d3\u13c5\u13d6\u13d7": 1903,
    "\u2581\u13e3\u13c1\u13ae\u13a2": 1904,
    "\u2581\u13e7\u13b8\u13eb\u13cd\u13d3\u13c1\u13d7\u13f1": 1905,
    "\u2581\u13a2\u13cd\u13d7": 1906,
    "\u2581\u13d7\u13a6\u13b5\u13a0\u13c5\u13af\u13db": 1907,
    "\u2581\u13c4\u13be\u13db\u13c1\u13b8\u13a9": 1908,
    "\u2581\u13a0\u13d3\u13f0\u13cd": 1909,
    "\u2581\u13da\u13f3\u13aa\u13d7": 1910,
    "\u2581\u13a4\u13be\u13c4\u13aa\u13eb\u13ce\u13a2": 1911,
    "\u2581\u13a0\u13e5\u13b8\u13a0\u13c1\u13b6\u13af": 1912,
    "\u2581\u13a4\u13d4\u13b7\u13a9\u13cd\u13a9": 1913,
    "\u2581\u13ac\u13e9\u13db\u13db\u13c1": 1914,
    "\u2581\u13ed\u13b6\u13d2\u13a9": 1915,
    "\u2581\u13a0\u13a6\u13d4\u13ad": 1916,
    "\u13ad\u13d7": 1917,
    "\u2581\u13a4\u13b5\u13cd\u13a8": 1918,
    "\u2581\u13e7\u13b5\u13a2": 1919,
    "\u2581\u13be\u13a5\u13c2\u13f3": 1920,
    "\u2581\u13a7\u13c1\u13a2\u13cd\u13d7": 1921,
    "\u2581\u13d3\u13e0\u13af\u13cd\u13db\u13a2": 1922,
    "\u2581\u13da\u13b8\u13eb\u13cd\u13d3\u13c1\u13b2": 1923,
    "\u2581\u13d5\u13a8\u13cc\u13d7\u13d2\u13a2": 1924,
    "\u2581\u13a4\u13c2\u13b5": 1925,
    "\u2581\u13ad\u13d3\u13c5\u13d6\u13cd\u13ac": 1926,
    "\u2581\u13cd\u13aa\u13af": 1927,
    "\u13cc\u13d8": 1928,
    "\u13d7\u13cd\u13a8": 1929,
    "\u2581\u13a4\u13c1\u13e4\u13b8\u13a9": 1930,
    "\u2581\u13a4\u13e3\u13db": 1931,
    "an": 1932,
    "\u2581\u13d1\u13d3\u13b5\u13c1": 1933,
    "\u13a6\u13d8\u13cd\u13d9\u13d7": 1934,
    "\u2581\u13d9\u13f3": 1935,
    "\u2581\u13d7\u13a8\u13e5": 1936,
    "\u13b5\u13cf": 1937,
    "\u2581\u13e5\u13ef": 1938,
    "\u2581\u13ac\u13d7\u13cd\u13ac\u13a2": 1939,
    "\u13c3\u13af\u13ce\u13b8": 1940,
    "\u2581\u13f3\u13c2": 1941,
    "\u2581\u13a4\u13b4\u13c5": 1942,
    "\u2581\u13d7\u13e3\u13d3": 1943,
    "\u2581\u13da\u13c5": 1944,
    "\u2581\u13f4\u13ac": 1945,
    "\u2581\u13f3\u13e9": 1946,
    "\u2581\u13a0\u13f0\u13b8\u13d7": 1947,
    "\u13e3\u13d8": 1948,
    "\u2581\u13a4\u13f0\u13b8\u13db\u13a2": 1949,
    "\u13cd\u13d4\u13c5\u13a9": 1950,
    "\u13c5\u13ad": 1951,
    ".]": 1952,
    "\u2581\u13a4\u13d5": 1953,
    "\u13af\u13ad": 1954,
    "\u2581\u13e4\u13a9": 1955,
    "\u2581\u13a4\u13f2\u13c9": 1956,
    "\u13ab": 1957,
    "\u2581\u13cd\u13a9\u13c3": 1958,
    "\u2581\u13aa\u13af\u13db": 1959,
    "\u13b5\u13cd\u13d4\u13c5": 1960,
    "\u2581\u13a0\u13d3\u13c5\u13d9\u13cd\u13a9\u13c2": 1961,
    "\u13df\u13cd\u13d7": 1962,
    "\u2581\u13a4\u13ec": 1963,
    "\u2581\u13af\u13a6\u13d4\u13ad": 1964,
    "\u2581---": 1965,
    "\u2581\u13f1\u13a8": 1966,
    "\u2581\u13ec": 1967,
    "\u13c2\u13d7\u13f3": 1968,
    "\u2581\u13a2\u13c5\u13af": 1969,
    "\u2581\u13a4\u13ab\u13f4\u13d7": 1970,
    "\u2581\u13d9\u13d3\u13a6": 1971,
    "\u2581\u13d1\u13be\u13b4\u13c3": 1972,
    "\u2581\u13e9\u13c1": 1973,
    "\u2581\u13e5\u13c5\u13cf\u13d3\u13cd\u13d7": 1974,
    "\u2581\u13d7\u13ac\u13e9\u13c2": 1975,
    "\u2581\u13c4\u13cd\u13db\u13be": 1976,
    "\u2581\u13be\u13d1\u13f4": 1977,
    "\u2581\u13e7\u13b5": 1978,
    "\u2581\u13a4\u13aa": 1979,
    "\u2581\u13db\u13be": 1980,
    "\u2581\u13e2": 1981,
    "\u13c1\u13b2\u13a2": 1982,
    "\u2581\u13a0\u13c1\u13d9\u13ae": 1983,
    "\u2581\u13d3\u13c5\u13c5": 1984,
    "\u2581\u13af\u13c6": 1985,
    "\u2581\u13d5\u13a8\u13f4": 1986,
    "\u2581\u13da\u13be\u13d3\u13e1\u13e9\u13d7\u13d2": 1987,
    "\u13aa\u13e9\u13db\u13d7": 1988,
    "\u2581\u13a4\u13c4\u13aa\u13e8": 1989,
    "\u2581\u13da\u13aa\u13b2": 1990,
    "\u2581\u13c5\u13c3": 1991,
    "\u2581\u13a6\u13c5\u13ac": 1992,
    "\u2581\u13a4\u13ea\u13d9\u13b8": 1993,
    "\u2581\u13a4\u13ea\u13c5\u13cd\u13d7": 1994,
    "\u2581\u13a0\u13d2\u13a8": 1995,
    "\u2581\u13a0\u13a9\u13be\u13eb": 1996,
    "\u2581\u13a4\u13f2\u13b1\u13af\u13cd\u13d7": 1997,
    "\u2581\u13e5\u13ac": 1998,
    "\u2581\u13a0\u13c7": 1999,
    "\u13c4\u13ae\u13db": 2000,
    "\u2581\u13d1\u13d3\u13b4\u13a9": 2001,
    "\u2581\u13c0\u13be": 2002,
    "\u2581\u13c5\u13ec\u13d8": 2003,
    "\u2581\u13cd\u13cf\u13c9\u13ef": 2004,
    "\u2581\u13d7\u13a6\u13d9\u13cc\u13d7\u13cd\u13d7\u13f1": 2005,
    "\u2581\u13d7\u13c2\u13a8\u13eb": 2006,
    "\u2581\u13a6\u13c3\u13cd\u13a9\u13cd\u13a9": 2007,
    "\u2581\u13cc\u13d9\u13c2": 2008,
    "\u2581\u13e7\u13be\u13e6\u13f4\u13cd\u13d7": 2009,
    "\u2581\u13be\u13a6\u13a5": 2010,
    "\u2581\u13ae\u13b3\u13c2": 2011,
    "\u2581\u13d7\u13aa\u13d2\u13d4\u13c5": 2012,
    "\u2581\u13a8\u13e3\u13cd\u13a6\u13a9": 2013,
    "\u2581\u13a0\u13c9\u13f0\u13c2": 2014,
    "\u2581\u13a6\u13da\u13a2\u13d7\u13e2": 2015,
    "\u2581\u13c7\u13cd\u13d3": 2016,
    "\u2581\u13d7\u13c2\u13b0\u13b5": 2017,
    "\u2581\u13cd\u13d7\u13eb": 2018,
    "\u2581\u13cc\u13ca": 2019,
    "\u2581\u13da\u13d1\u13ac": 2020,
    "\u2581\u13c1\u13c2\u13cf": 2021,
    "\u2581\u13a4\u13a7\u13f2\u13db\u13af": 2022,
    "\u2581\u13a8\u13a6\u13d1\u13f0\u13db": 2023,
    "\u2581\u13a0\u13c2\u13a6\u13d4\u13be\u13a2": 2024,
    "\u2581\u13da\u13a6\u13d2\u13cd\u13db": 2025,
    "\u2581\u13d7\u13cd\u13c6\u13be\u13b3\u13d7\u13cd\u13d7": 2026,
    "\u2581\u13d7\u13b3\u13d1\u13b6": 2027,
    "\u2581\u13c4\u13cd\u13d7\u13d3\u13c5": 2028,
    "\u2581\u13a2\u13f3\u13d3\u13c5\u13af\u13d3": 2029,
    "\u2581\u13ac\u13a9\u13cd\u13a6\u13a9": 2030,
    "\u2581\u13a3\u13e5\u13a6\u13d4\u13ad": 2031,
    "\u2581\u13a4\u13d5\u13b6\u13b0\u13ce": 2032,
    "\u2581\u13e9\u13db\u13ac\u13a6": 2033,
    "\u2581\u13a4\u13d3\u13c5\u13d6\u13b8": 2034,
    "\u2581\u13a2\u13e5\u13ef\u13eb\u13cd\u13a8\u13cd\u13d7": 2035,
    "\u2581\u13a3\u13ad\u13c2": 2036,
    "\u2581\u13a0\u13c2\u13a9\u13cf\u13d9\u13af": 2037,
    "\u2581\u13a8\u13c6\u13c2": 2038,
    "\u13aa\u13e3\u13b4\u13db": 2039,
    "\u2581\u13d7\u13e5\u13b6\u13cd\u13d4\u13c5": 2040,
    "\u2581\u13a2\u13e5\u13c5\u13df": 2041,
    "\u2581\u13a4\u13e4": 2042,
    "\u2581\u13a0\u13c2\u13a6\u13d4\u13af": 2043,
    "\u2581\u13e5\u13ae\u13be": 2044,
    "\u2581\u13a0\u13cd\u13a6\u13f0\u13ac\u13cd\u13d4": 2045,
    "\u2581\u13eb\u13b6\u13af": 2046,
    "\u2581\u13a4\u13d9\u13b4\u13b0\u13ce": 2047,
    "\u2581\u13c4\u13d5\u13d8\u13f4\u13ae\u13a2": 2048,
    "\u2581\u13a4\u13ea\u13b7\u13c5\u13a9": 2049,
    "\u2581\u13d3\u13f3\u13b6\u13d2": 2050,
    "\u2581\u13c2\u13a6\u13da": 2051,
    "\u2581\u13da\u13a7\u13be\u13c1": 2052,
    "\u2581\u13a4\u13c1\u13b7\u13c1\u13a2": 2053,
    "\u2581\u13a2\u13e5\u13cd\u13a6\u13c5\u13e8\u13a2": 2054,
    "\u2581\u13a4\u13db\u13d0\u13c5\u13af": 2055,
    "\u2581\u13a4\u13b5\u13cd\u13d5\u13b8\u13d9\u13d7": 2056,
    "\u2581\u13aa\u13e2\u13c5\u13af": 2057,
    "\u2581\u13a4\u13d3\u13c5\u13d2\u13a9": 2058,
    "\u2581\u13a0\u13e7\u13cf": 2059,
    "\u13a0\u13ce\u13c3": 2060,
    "\u2581\u13d5\u13a6\u13b6\u13d7\u13af": 2061,
    "\u2581\u13a0\u13a9\u13aa\u13b2\u13a9": 2062,
    "\u2581\u13a4\u13d3\u13d4\u13c5\u13af": 2063,
    "\u2581\u13d3\u13a7\u13c5\u13a2": 2064,
    "\u13cc\u13c2": 2065,
    "\u2581\u13ac\u13e9\u13b7\u13e4\u13b8\u13a9": 2066,
    "\u2581\u13aa\u13e2\u13d2\u13a2": 2067,
    "\u2581\u13a4\u13c4\u13aa\u13e4": 2068,
    "\u2581\u13a1\u13b3\u13d7\u13e3": 2069,
    "\u2581\u13a2\u13e7\u13e9\u13c1": 2070,
    "\u2581\u13a1\u13d9\u13af": 2071,
    "\u2581\u13a0\u13e5\u13b8\u13a8\u13b6\u13af": 2072,
    "\u2581\u13d3\u13ac\u13be": 2073,
    "\u2581\u13a8\u13be\u13c2\u13f1": 2074,
    "\u2581\u13a0\u13c1\u13b3": 2075,
    "\u13b6\u13a2": 2076,
    "\u13ee": 2077,
    "\u2581\u13da\u13be\u13d3\u13e1\u13e9\u13d7\u13d2\u13a2": 2078,
    "\u2581\u13a4\u13c2\u13cd\u13a6\u13c5\u13e8\u13af": 2079,
    "\u2581\u13a4\u13c1\u13b3\u13c5\u13af\u13f1": 2080,
    "\u2581\u13a4\u13be\u13d3\u13d1\u13f4": 2081,
    "\u2581\u13aa\u13e3\u13b4\u13db": 2082,
    "\u2581\u13ae\u13d7": 2083,
    "\u2581\u13a4\u13cd\u13d8\u13f0\u13ac": 2084,
    "\u2581\u13e5\u13aa\u13a8": 2085,
    "\u13d6\u13b8\u13d7": 2086,
    "\u2581\u13e3\u13c2\u13c3": 2087,
    "\u13d9\u13d3": 2088,
    "\u2581\u13da\u13c2\u13b8\u13eb\u13cd\u13d3\u13c1\u13b2\u13a2": 2089,
    "\u2581\u13a0\u13d4\u13b4\u13d2\u13a2": 2090,
    "\u13bf\u13a8": 2091,
    "\u2581\u13c2\u13a6\u13ea\u13cd\u13ac\u13a9": 2092,
    "\u13b5\u13d3\u13cd\u13d7": 2093,
    "\u13b8\u13d7": 2094,
    "\u2581\u13f1\u13a6\u13a9": 2095,
    "\u2581\u13a4\u13aa\u13ae\u13a2": 2096,
    "\u2581\u13e1\u13ac\u13a2": 2097,
    "\u13d5\u13a9": 2098,
    "\u2581\u13a4\u13e3": 2099,
    "\u2581\u13a4\u13b4": 2100,
    "\u2581\u13a1\u13b3": 2101,
    "\u2581\u13a0\u13cd\u13a6": 2102,
    "\u2581\u13d9\u13d7": 2103,
    "\u2581\u13a4\u13f2\u13b1\u13d2\u13a2": 2104,
    "\u2581\u13bb": 2105,
    ";)": 2106,
    "\u2581\u13d3\u13f0": 2107,
    "\u13b5\u13cd\u13aa\u13b8\u13d3\u13c1\u13b8\u13af": 2108,
    "\u13d3\u13c5": 2109,
    "\u2581\u13a4\u13e9\u13db\u13d7": 2110,
    "\u2581\u13e5\u13f4": 2111,
    "\u2581\u13e5\u13d3\u13c2": 2112,
    "\u13da\u13a6": 2113,
    "\u2581\u13a0\u13c2\u13c2": 2114,
    "\u13b4\u13ad": 2115,
    "\u2581\u13a4\u13c2\u13c1\u13e8": 2116,
    "\u2581\u13a4\u13c4\u13ec": 2117,
    "\u13b7\u13e5\u13cf": 2118,
    "\u13d6\u13cd\u13d7": 2119,
    "\u2581\u13a6\u13be": 2120,
    "\u13a5\u13be": 2121,
    "\u13c5\u13ce": 2122,
    "\u13d3\u13d1\u13ef": 2123,
    "\u13c1\u13e5": 2124,
    "\u13d3\u13e5": 2125,
    "\u13d7\u13cd\u13aa\u13a2": 2126,
    "\u13d3\u13c2\u13b8\u13e8\u13af": 2127,
    "\u2581\u13f1\u13ac\u13e9": 2128,
    "\u2581\u13a2\u13cd": 2129,
    "\u2581\u13a4\u13e6": 2130,
    "\u2581\u13a6\u13c1": 2131,
    "\u13d7\u13e3": 2132,
    "\u2581\u13a6\u13db": 2133,
    "\u2581\u13cf\u13bb\u13ef\u13c2": 2134,
    "\u13ce\u13b8": 2135,
    "\u2581\u13aa\u13af\u13f3\u13d7\u13cd\u13a9": 2136,
    "\u13e4\u13b5": 2137,
    "\u2581\u13a0\u13af\u13d7": 2138,
    "\u13c1\u13b6\u13d7": 2139,
    "\u2581\u13a3\u13a6\u13e4\u13b5": 2140,
    "\u2581\u13c2\u13ac\u13c1": 2141,
    "\u2581\u13d3\u13ac\u13e9": 2142,
    "\u2581\u13a7\u13c3\u13ae\u13cd\u13ac": 2143,
    "\u2581\u13c4\u13be\u13db\u13c1\u13b8": 2144,
    "\u13d2\u13c5": 2145,
    "\u13e3\u13d3": 2146,
    "\u2581\u13a0\u13cd\u13d3": 2147,
    "\u2581\u13a0\u13c5\u13d7\u13cd\u13ac": 2148,
    "\u2581\u13a4\u13dc\u13c5\u13db": 2149,
    "\u2581\u13a4\u13bf\u13e5": 2150,
    "\u2581\u13d3\u13d3": 2151,
    "\u2581\u13eb\u13da\u13ef\u13c5\u13ae": 2152,
    "\u2581\u13aa\u13f1\u13c1": 2153,
    "\u2581\u13a0\u13e8\u13ef": 2154,
    "\u2581\u13a0\u13c2\u13c1\u13ac": 2155,
    "\u2581\u13a4\u13be\u13da\u13b5\u13cd\u13ac": 2156,
    "\u2581\u13a4\u13c2\u13a9\u13ce": 2157,
    "\u13a5\u13af\u13cd\u13d7": 2158,
    "\u2581\u13a2\u13e8\u13ef": 2159,
    "\u2581\u13da\u13b8\u13cc\u13db": 2160,
    "\u2581\u13a0\u13c7\u13b5\u13d2": 2161,
    "\u2581\u13c2\u13da\u13e9\u13c1\u13b8": 2162,
    "\u2581\u13a4\u13ea\u13c5\u13d2": 2163,
    "\u13ac\u13ad\u13b7\u13f4": 2164,
    "\u2581\u13e5\u13c1\u13ac": 2165,
    "\u2581\u13a0\u13f4\u13eb\u13ef": 2166,
    "\u13b8\u13cc\u13db": 2167,
    "\u2581\u13f1\u13e5\u13a6\u13d4": 2168,
    "\u13b6\u13d2": 2169,
    "\u2581\u13a2\u13ef\u13c6\u13db\u13c1\u13d7": 2170,
    "\u2581\u13c2\u13e8\u13c1\u13b8": 2171,
    "\u2581\u13a4\u13c1\u13d3\u13cd\u13d7": 2172,
    "\u2581\u13d7\u13a6\u13aa\u13d7": 2173,
    "\u2581\u13a4\u13e9\u13c5": 2174,
    "\u2581\u13a0\u13c1\u13b5\u13cd\u13a8": 2175,
    "\u2581\u13a1\u13b3\u13c2\u13ac": 2176,
    "\u2581\u13eb\u13ac": 2177,
    "\u2581\u13a4\u13e9\u13db\u13b2": 2178,
    "\u2581\u13a4\u13b5\u13ec\u13e8": 2179,
    "\u2581\u13a0\u13c2\u13e9\u13e5\u13c2": 2180,
    "\u2581\u13a6\u13b3\u13b1\u13c2": 2181,
    "\u2581\u13d5\u13a6\u13b3\u13eb\u13a5": 2182,
    "\u2581\u13e7\u13d3\u13bf\u13e9\u13db": 2183,
    "\u2581\u13a2\u13c6\u13b6\u13c2": 2184,
    "\u2581\u13be\u13aa\u13d4\u13c5\u13be": 2185,
    "\u2581\u13da\u13be\u13a7\u13db": 2186,
    "\u2581\u13d7\u13c2\u13ec\u13c2\u13cd\u13a9": 2187,
    "\u2581\u13e3\u13d4\u13a6": 2188,
    "\u2581\u13a4\u13d9\u13b4\u13b0\u13af\u13cd\u13d7\u13f1": 2189,
    "\u2581\u13da\u13c3\u13e2\u13d4\u13c5\u13a9": 2190,
    "\u2581\u13a2\u13d5\u13af": 2191,
    "\u2581\u13c4\u13d3\u13b5\u13d3\u13cd\u13db\u13be": 2192,
    "\u2581\u13d7\u13a8\u13e5\u13a4\u13cd\u13d5\u13ce\u13b8\u13af": 2193,
    "\u2581\u13c5\u13d3\u13a6\u13b5\u13cd\u13d9\u13d3": 2194,
    "\u2581\u13d7\u13c2\u13cd\u13aa\u13b5": 2195,
    "\u2581\u13c2\u13a6\u13b5\u13cd\u13d4\u13c2\u13d9\u13b2": 2196,
    "\u2581\u13a6\u13c2\u13d3\u13db": 2197,
    "\u2581\u13cd\u13aa\u13ef": 2198,
    "\u2581\u13e7\u13c6\u13b6\u13ac": 2199,
    "\u2581\u13c2\u13e3\u13db\u13c1\u13ae\u13cd\u13d7": 2200,
    "\u2581\u13be\u13b5\u13cd\u13c6\u13d7\u13cd\u13ac\u13be": 2201,
    "\u2581\u13a2\u13e5\u13f0\u13b8\u13ce\u13cd\u13d7": 2202,
    "\u2581\u13a2\u13e3\u13c5\u13d6\u13cd\u13d7": 2203,
    "\u2581\u13a4\u13ec\u13d1\u13b6\u13e8\u13af": 2204,
    "\u2581\u13a5\u13a9\u13c5\u13cf\u13db": 2205,
    "\u2581\u13da\u13be\u13b4\u13c1": 2206,
    "\u2581\u13a0\u13c2\u13c3\u13cd\u13a9\u13cd\u13a9": 2207,
    "\u2581\u13d7\u13d3\u13ec\u13cd\u13a9": 2208,
    "\u2581\u13a2\u13f3\u13d5\u13d8\u13f4\u13d3": 2209,
    "\u2581\u13a2\u13e7\u13b3\u13d7\u13e2": 2210,
    "\u2581\u13af\u13cd\u13a6\u13ef": 2211,
    "\u2581\u13a2\u13e5\u13a6\u13d4\u13ae\u13cd\u13d7": 2212,
    "\u2581\u13a1\u13c2\u13d7": 2213,
    "\u2581\u13c2\u13da\u13be\u13d3\u13ea\u13ce\u13b4\u13a2": 2214,
    "\u2581\u13a0\u13cc\u13c5\u13d9\u13d7": 2215,
    "\u2581\u13d7\u13d1\u13e2\u13db": 2216,
    "\u2581\u13a3\u13c2\u13d7\u13e2": 2217,
    "\u2581\u13c5\u13d3\u13a6\u13b5\u13cd\u13d9\u13d4\u13c2": 2218,
    "\u2581\u13a0\u13b5\u13e5\u13d9\u13b2\u13cd\u13a9": 2219,
    "\u2581\u13a2\u13ef\u13cd\u13d8": 2220,
    "\u2581\u13a1\u13c8\u13b5": 2221,
    "\u2581\u13a2\u13e5\u13a6\u13d9\u13a5\u13af\u13cd\u13d7\u13f1": 2222,
    "\u2581\u13e7\u13be\u13b5\u13c2\u13a9\u13db": 2223,
    "\u2581\u13a0\u13a6\u13ef\u13b7\u13d7": 2224,
    "\u2581\u13aa\u13af\u13f3\u13b2\u13cd\u13a9": 2225,
    "\u2581\u13a0\u13e5\u13a4\u13cd\u13d5\u13ce\u13b8\u13af": 2226,
    "\u2581\u13c2\u13ac\u13ea\u13ce\u13ad": 2227,
    "\u2581\u13e3\u13d3\u13c5\u13d9": 2228,
    "\u2581\u13e7\u13cd\u13aa\u13b5": 2229,
    "\u2581\u13a6\u13be\u13cd\u13d3": 2230,
    "\u2581\u13c2\u13a6\u13b5\u13cd\u13d4\u13c5\u13ad": 2231,
    "\u2581\u13c5\u13e7\u13b5\u13cd\u13d9\u13d4\u13c5": 2232,
    "\u2581\u13cd\u13a9\u13d9\u13b5\u13a9": 2233,
    "\u2581\u13a4\u13d5\u13b5\u13d2": 2234,
    "\u2581\u13a2\u13f3\u13b5\u13cd\u13d4\u13c5\u13af": 2235,
    "\u2581\u13ad\u13bb": 2236,
    "\u2581\u13a4\u13b5\u13cd\u13d7\u13f3": 2237,
    "\u2581\u13e7\u13c2\u13b3\u13eb\u13a2\u13cd\u13d7\u13f1": 2238,
    "\u2581\u13a2\u13d5\u13be": 2239,
    "\u2581\u13d3\u13d3\u13cf": 2240,
    "\u2581\u13a0\u13a6\u13d4\u13bf\u13a2": 2241,
    "\u2581\u13da\u13e0\u13f1\u13b4\u13a2": 2242,
    "\u2581\u13a0\u13c6\u13b5\u13cf": 2243,
    "\u2581\u13a4\u13cd\u13c6\u13db": 2244,
    "\u2581\u13a2\u13ef\u13c6\u13db\u13c1\u13d7\u13f1": 2245,
    "\u2581\u13a2\u13d3\u13b5": 2246,
    "\u2581\u13b9\u13d7": 2247,
    "\u2581\u13a4\u13ea\u13d7\u13f1": 2248,
    "\u2581\u13a8\u13a5\u13a2": 2249,
    "\u2581\u13a4\u13df\u13c2\u13a9\u13d3": 2250,
    "\u2581\u13a4\u13c2\u13a9\u13d2\u13a9": 2251,
    "\u2581\u13a1\u13d8\u13f4": 2252,
    "\u2581\u13d8\u13b5": 2253,
    "\u2581\u13a4\u13be\u13db\u13c1\u13a2": 2254,
    "\u2581\u13b9\u13a9": 2255,
    "\u13b7\u13e4\u13d7\u13f1": 2256,
    "\u2581\u13c2\u13da\u13e9\u13c1\u13b8\u13a9": 2257,
    "\u2581\u13eb\u13da\u13c2": 2258,
    "\u2581\u13e7\u13c2\u13be\u13eb\u13f1": 2259,
    "\u2581\u13c4\u13be\u13cd\u13d7": 2260,
    "\u2581\u13e7\u13d3\u13c5\u13db\u13a2": 2261,
    "\u2581\u13ac\u13e9\u13aa\u13b2": 2262,
    "\u2581\u13a8\u13d9\u13b2": 2263,
    "\u2581\u13ed\u13c2\u13b7\u13e4\u13a2": 2264,
    "\u2581\u13c2\u13d9": 2265,
    "\u2581\u13a8\u13c2\u13d7": 2266,
    "\u13e2\u13d7": 2267,
    "\u2581\u13a0\u13c6\u13b5": 2268,
    "\u13d3\u13e1\u13ac": 2269,
    "\u13d3\u13cf": 2270,
    "\u2581\u13c2\u13eb": 2271,
    "\u2581\u13ef\u13c6\u13da\u13b5": 2272,
    "\u2581\u13a4\u13e3\u13d6": 2273,
    "\u2581\u13ad\u13b5": 2274,
    "\u13d0\u13c5": 2275,
    "\u13c3\u13c1\u13b8\u13a9": 2276,
    "\u2581\u13f1\u13b0": 2277,
    "\u2581\u13c8": 2278,
    "\u2581\u13af\u13b8\u13af": 2279,
    "\u2581\u13a6\u13db\u13ac\u13a2": 2280,
    "\u13c1\u13cd\u13a8": 2281,
    "\u2581\u13a4\u13aa\u13b2\u13af": 2282,
    "\u2581\u13a4\u13c1\u13a2\u13cd\u13d7": 2283,
    "\u2581\u13a4\u13ad\u13a8": 2284,
    "\u2581\u13c4\u13db\u13c1\u13b8\u13a2": 2285,
    "\u13d9\u13a5": 2286,
    "\u2581\u13a8\u13d3\u13b5": 2287,
    "\u13c3\u13b2\u13cf": 2288,
    "\u13d9\u13b5\u13cd\u13d7": 2289,
    "\u13ab\u13f4\u13d9\u13d7": 2290,
    "\u2581\u13a4\u13e9\u13a8\u13eb": 2291,
    "\u13a1\u13cd\u13d7": 2292,
    "\u13cd\u13c6\u13c2\u13aa\u13d7": 2293,
    "\u13ea\u13e8\u13af": 2294,
    "\u2581\u13a4\u13b4\u13c5\u13b2": 2295,
    "\u2581\u13e7\u13ea\u13d8": 2296,
    "\u2581\u13a4\u13ef": 2297,
    "\u2581\u13d7\u13ac\u13d9\u13d7": 2298,
    "\u2581\u13a0\u13a9\u13ad": 2299,
    "\u2581\u13a0\u13a6\u13db": 2300,
    "\u2581\u13af\u13be": 2301,
    "\u2581\u13d3\u13e5\u13ef": 2302,
    "\u2581\u13a4\u13d4\u13c5": 2303,
    "\u13e9\u13db\u13ae": 2304,
    "\u13a0\u13ef\u13d7": 2305,
    "\u2581\u13a4\u13d9\u13d3\u13c3": 2306,
    "\u13c2\u13d2": 2307,
    "\u13c5\u13cf\u13d9\u13af": 2308,
    "\u13d3\u13b5": 2309,
    "\u13cd\u13d5\u13cd\u13d7": 2310,
    "\u2581\u13a4\u13db\u13c5\u13a9": 2311,
    "\u13f4\u13d3": 2312,
    "\u2581\u13a8\u13b6\u13af": 2313,
    "\u2581\u13ed\u13c2\u13b7\u13e4": 2314,
    "\u13c1\u13b8\u13d4\u13c5": 2315,
    "\u2581\u13c4\u13d3": 2316,
    "\u2581\u13c2\u13e3\u13db\u13c5\u13a2": 2317,
    "\u13a4\u13d9\u13af\u13f3": 2318,
    "\u13e7\u13cf": 2319,
    "\u13f4\u13ad": 2320,
    "\u13a5\u13dd": 2321,
    "\u13d3\u13c5\u13a6\u13b8\u13db": 2322,
    "\u13d9\u13b5": 2323,
    "\u2581\u13a0\u13c2\u13c1": 2324,
    "\u2581\u13a0\u13cd\u13a6\u13c5\u13e8": 2325,
    "\u13d3\u13b6\u13c2\u13a8": 2326,
    "\u2581\u13be\u13c6\u13db\u13c1\u13b8": 2327,
    "\u13d4\u13b7\u13a9\u13cd\u13a9": 2328,
    "\u13a8\u13b3\u13cd\u13d7": 2329,
    "\u2581\u13a0\u13a9\u13c1\u13e8": 2330,
    "\u13da\u13b5": 2331,
    "\u13a9\u13cd\u13a8\u13cd\u13d7": 2332,
    "\u2581\u13a0\u13d3\u13c5\u13d6\u13cd\u13a8": 2333,
    "\u2581\u13a1\u13b5\u13cd\u13a8": 2334,
    "\u2581\u13eb\u13a6\u13c5\u13c5": 2335,
    "\u2581\u13a0\u13d3\u13ef": 2336,
    "\u2581\u13a0\u13c2\u13e8\u13ef": 2337,
    "\u2581\u13a4\u13a9\u13e8\u13c5": 2338,
    "\u2581\u13d5\u13a6\u13c5\u13c5": 2339,
    "\u2581\u13a4\u13b5\u13c2\u13ac\u13ac": 2340,
    "\u2581\u13d7\u13e4\u13b2": 2341,
    "\u2581\u13a5\u13d3\u13b8": 2342,
    "\u2581\u13a4\u13c2\u13c3\u13ae\u13b8": 2343,
    "\u13a2\u13f3\u13be\u13cd\u13d7": 2344,
    "\u2581\u13e3\u13a7\u13db": 2345,
    "\u2581\u13a6\u13f0\u13cc\u13db": 2346,
    "\u2581\u13ac\u13e9\u13b7\u13e4\u13b4": 2347,
    "\u2581\u13d7\u13d3\u13c1\u13b8": 2348,
    "\u2581\u13c2\u13e3\u13db\u13c5": 2349,
    "\u2581\u13a4\u13f0\u13b8\u13c1": 2350,
    "\u2581\u13a4\u13bf\u13a5": 2351,
    "\u13ce\u13d7": 2352,
    "\u2581\u13d7\u13e5\u13f0\u13b8": 2353,
    "\u2581\u13e5\u13d9\u13ac": 2354,
    "\u2581\u13eb\u13da\u13ef\u13c5\u13b2": 2355,
    "\u2581\u13a0\u13cd\u13da\u13b2": 2356,
    "\u2581\u13ac\u13e9\u13b7\u13e4\u13b8": 2357,
    "\u13cd\u13d7\u13cd\u13a8\u13cd\u13d7": 2358,
    "\u13c5\u13d3": 2359,
    "\u13d3\u13c1\u13b8": 2360,
    "\u2581\u13a0\u13c2\u13c3\u13af\u13b5\u13d9": 2361,
    "\u2581\u13c2\u13aa": 2362,
    "\u2581\u13d7\u13c4\u13aa\u13d7\u13cd\u13a9": 2363,
    "\u2581\u13a2\u13ac\u13e9\u13c1\u13d7": 2364,
    "\u2581\u13a0\u13e5\u13a2\u13cd\u13d7": 2365,
    "\u13a9\u13af": 2366,
    "\u2581\u13a0\u13c1\u13b5\u13cd\u13ac": 2367,
    "\u2581\u13f1\u13d9": 2368,
    "\u2581\u13a0\u13f0\u13b2": 2369,
    "\u2581\u13da\u13c5\u13ce": 2370,
    "\u13d4\u13c5\u13a2": 2371,
    "\u2581Chap": 2372,
    "\u2581\u13a1\u13a9\u13b5\u13c8": 2373,
    "\u2581\u13a2\u13d7\u13cd\u13d3\u13d3\u13b3": 2374,
    "\u2581\u13a2\u13ef\u13ac\u13c1\u13b8\u13af": 2375,
    "\u2581\u13c2\u13d3\u13aa\u13d4\u13c5\u13be": 2376,
    "\u2581\u13cc\u13ec\u13da": 2377,
    "\u2581\u13a0\u13c2\u13c8\u13b5\u13cd\u13d7": 2378,
    "\u2581\u13cc\u13f1\u13b3": 2379,
    "\u2581\u13a0\u13f0\u13b3\u13cd\u13d8": 2380,
    "\u2581\u13da\u13a7\u13d4\u13cd\u13d4\u13c1\u13a2": 2381,
    "\u2581\u13e3\u13a6\u13df\u13b6\u13cd\u13d4\u13c5\u13af": 2382,
    "\u2581\u13e5\u13cd\u13aa\u13f4": 2383,
    "\u2581\u13c5\u13d3\u13a6\u13e5\u13f4\u13c1\u13b5": 2384,
    "\u2581\u13e7\u13d3\u13d5\u13cd\u13d7\u13f1": 2385,
    "\u2581\u13a0\u13d7\u13d2\u13cd\u13d7": 2386,
    "\u2581\u13ae\u13bc": 2387,
    "\u2581\u13a4\u13f2\u13cd\u13db\u13c9": 2388,
    "\u2581\u13a2\u13c6\u13bb": 2389,
    "\u2581\u13a0\u13d5\u13d2\u13b2\u13cd\u13a9": 2390,
    "\u2581\u13d7\u13e5\u13a6\u13d9\u13b5": 2391,
    "\u2581\u13e7\u13be\u13d3\u13c5\u13d9": 2392,
    "\u2581\u13a4\u13c2\u13c1\u13ab\u13e5\u13db": 2393,
    "\u2581\u13e5\u13c2\u13e3\u13db\u13c5": 2394,
    "\u2581\u13a4\u13b3\u13a8\u13ef\u13db\u13e4\u13a2": 2395,
    "\u2581\u13a4\u13a9\u13d3\u13df\u13c5\u13ef": 2396,
    "\u2581\u13cc\u13da": 2397,
    "\u2581\u13a2\u13f3\u13db\u13c1\u13b8\u13af": 2398,
    "\u2581\u13a0\u13b9\u13f3\u13b8\u13d3": 2399,
    "\u2581\u13f1\u13e5\u13cd\u13a6\u13a2\u13ae\u13cd\u13d7": 2400,
    "\u2581\u13a0\u13a9\u13ac\u13eb\u13f3\u13af": 2401,
    "\u2581\u13e3\u13e4\u13b5\u13aa\u13af": 2402,
    "\u2581\u13cf\u13b5\u13f1": 2403,
    "\u2581\u13a4\u13cd\u13da\u13a2\u13d2": 2404,
    "\u2581\u13e4\u13d9\u13b2": 2405,
    "\u2581\u13a6\u13ab\u13cd\u13db\u13d7": 2406,
    "\u2581\u13a4\u13e3\u13d4": 2407,
    "\u2581\u13c7\u13d5\u13b5": 2408,
    "\u2581\u13ed\u13b7\u13e3": 2409,
    "\u2581\u13d7\u13a8\u13e5\u13be\u13cc\u13a2": 2410,
    "\u2581\u13a7\u13c1\u13cd\u13aa": 2411,
    "\u2581\u13a0\u13c2\u13c3\u13ae\u13cd\u13a9": 2412,
    "\u2581\u13e5\u13f2\u13ce\u13b8": 2413,
    "\u2581\u13a0\u13a6\u13d4\u13be\u13a2": 2414,
    "\u2581\u13a4\u13be\u13d7\u13cd\u13a6\u13b6\u13d7": 2415,
    "\u2581\u13a0\u13c9\u13b3": 2416,
    "\u2581\u13d3\u13ac\u13d4\u13c2": 2417,
    "\u2581\u13ac\u13e9\u13cd\u13d3\u13e9\u13db\u13d2\u13a9": 2418,
    "\u2581\u13a3\u13a9\u13d9\u13d3": 2419,
    "\u2581\u13d7\u13a6\u13c5\u13cd\u13a8\u13c2": 2420,
    "\u2581\u13ac\u13b5\u13cd\u13c6\u13d7\u13cd\u13a9": 2421,
    "\u2581\u13d7\u13ac\u13e9\u13b8\u13cc\u13db": 2422,
    "\u2581\u13d3\u13a8\u13cf": 2423,
    "\u2581\u13e5\u13e5\u13a6\u13d4\u13ad": 2424,
    "\u2581\u13a2\u13f3\u13e9\u13c1\u13af": 2425,
    "\u2581\u13a0\u13b5\u13cd\u13aa\u13b8\u13d3\u13c1\u13d7": 2426,
    "\u2581\u13da\u13c3\u13a1\u13a2": 2427,
    "\u2581\u13ef\u13a6\u13d4\u13ad": 2428,
    "\u2581\u13a0\u13c3\u13cd\u13db": 2429,
    "\u2581\u13be\u13e5\u13be\u13dd\u13a5\u13be": 2430,
    "\u2581\u13a4\u13c1\u13e2\u13d4\u13c5\u13af": 2431,
    "\u2581\u13e6\u13b3\u13c2": 2432,
    "\u13ac\u13eb\u13f3\u13d2": 2433,
    "\u2581\u13e7\u13c2\u13a6\u13f4\u13b5\u13a8": 2434,
    "\u2581\u13ed\u13b6\u13af\u13cd\u13d7\u13f1": 2435,
    "\u2581\u13f3\u13e9\u13c1\u13a6": 2436,
    "\u2581\u13a2\u13e3\u13e0\u13be\u13cd\u13d7": 2437,
    "\u2581\u13a0\u13c2\u13c5\u13a2": 2438,
    "\u2581\u13aa\u13ea\u13b3\u13c5\u13af": 2439,
    "\u2581\u13e6\u13c8": 2440,
    "\u2581\u13ac\u13c2\u13a8\u13d2\u13a2\u13f3": 2441,
    "\u2581\u13e6\u13b3": 2442,
    "\u2581\u13e5\u13c2\u13a6\u13ea\u13ad": 2443,
    "\u13a6\u13c5\u13af\u13d3": 2444,
    "\u2581\u13a0\u13e5\u13c3\u13ae\u13cd\u13ac\u13a2": 2445,
    "\u2581\u13e7\u13c1\u13ac": 2446,
    "\u2581\u13c2\u13a6\u13c5\u13af\u13d2\u13a9": 2447,
    "\u2581\u13be\u13a8": 2448,
    "\u2581\u13c2\u13da\u13cd\u13db": 2449,
    "\u13b8\u13c9\u13d7": 2450,
    "\u2581\u13a2\u13f3\u13e9": 2451,
    "\u2581\u13a4\u13ec\u13e2\u13c5\u13a9": 2452,
    "\u2581\u13a4\u13e2\u13a9": 2453,
    "\u2581\u13d5\u13cd\u13a9": 2454,
    "\u2581\u13a4\u13c5\u13cf\u13d9\u13af": 2455,
    "\u2581\u13a1\u13c9\u13d7\u13f1": 2456,
    "\u2581\u13a4\u13d3\u13c5\u13d6\u13b8\u13af": 2457,
    "\u13be\u13f0\u13cd\u13ac\u13be": 2458,
    "\u2581\u13a4\u13d5\u13c1\u13b8\u13af": 2459,
    "\u2581\u13a1\u13b3\u13d7\u13e2": 2460,
    "\u2581\u13d3\u13c2\u13c1\u13b8\u13a2": 2461,
    "\u2581\u13a0\u13a2\u13d2\u13a2": 2462,
    "\u13a7\u13b5\u13a2": 2463,
    "\u2581\u13ac\u13c2\u13f3": 2464,
    "\u13cf\u13d7\u13d2": 2465,
    "\u2581\u13a4\u13cd\u13a6\u13c5\u13e8\u13af": 2466,
    "\u2581\u13a4\u13c4\u13e2": 2467,
    "\u2581\u13e7\u13ec\u13da\u13af": 2468,
    "\u2581\u13a6\u13c5\u13af\u13d3": 2469,
    "\u13a8\u13f3\u13d7": 2470,
    "\u2581\u13a4\u13bf\u13a5\u13a2": 2471,
    "\u2581\u13a0\u13a9\u13cd\u13d7\u13f1": 2472,
    "\u2581\u13a8\u13b3\u13cd\u13d7": 2473,
    "\u2581\u13e4\u13c6": 2474,
    "\u13d1\u13f0\u13db": 2475,
    "\u2581\u13d5\u13e1\u13ac\u13a2": 2476,
    "\u2581\u13a4\u13be\u13db": 2477,
    "\u13d2\u13c3": 2478,
    "\u13f3\u13af": 2479,
    "\u2581\u13a4\u13be\u13db\u13a6\u13c5\u13af": 2480,
    "\u2581\u13be\u13c6": 2481,
    "\u2581\u13e5\u13a8": 2482,
    "\u2581\u13eb\u13cd\u13a9": 2483,
    "\u2581\u13d5\u13c2": 2484,
    "\u13c1\u13c3": 2485,
    "\u2581\u13a0\u13a9\u13f0\u13b8": 2486,
    "\u2581\u13a0\u13c6\u13d3\u13c5\u13d9\u13a9": 2487,
    "\u13a1\u13b8\u13af": 2488,
    "\u2581\u13a6\u13d9\u13ac\u13a9": 2489,
    "\u2581\u13c2\u13ac\u13c1\u13b2": 2490,
    "\u13c4\u13aa\u13eb\u13d2\u13a9": 2491,
    "\u2581\u13be\u13db\u13c1\u13b2": 2492,
    "\u13d9\u13d3\u13c6\u13d3": 2493,
    "\u13d5\u13b6\u13b0\u13af\u13cd\u13d7": 2494,
    "\u2581\u13a4\u13c2\u13cd\u13a6\u13c5\u13e8\u13a2": 2495,
    "\u2581\u13a4\u13b7\u13e4\u13a2": 2496,
    "\u13d4\u13c5\u13be": 2497,
    "\u13f0\u13af": 2498,
    "\u2581\u13a4\u13da": 2499,
    "\u2581\u13da\u13a6": 2500,
    "\u13d9\u13e2\u13c5": 2501,
    "\u2581\u13a4\u13ef\u13c5": 2502,
    "\u2581\u13c5\u13d7\u13a6\u13b5\u13cd\u13d9\u13d7\u13cd\u13ac\u13a2": 2503,
    "\u13c2\u13d3\u13cd\u13d7\u13f1": 2504,
    "\u2581\u13d5\u13ac": 2505,
    "\u2581\u13a2\u13d2": 2506,
    "\u2581\u13a0\u13d2\u13a9": 2507,
    "\u13d7\u13cd\u13ac\u13a2": 2508,
    "\u2581\u13ac\u13ef": 2509,
    "\u13a6\u13d9": 2510,
    "\u13d4\u13f2\u13cf": 2511,
    "\u13c5\u13d7": 2512,
    "\u13e6\u13e2\u13d7": 2513,
    "\u2581\u13e6\u13af\u13f3\u13d2": 2514,
    "\u2581\u13d7\u13e8": 2515,
    "\u13e4\u13b8": 2516,
    "\u13c1\u13e4\u13b4": 2517,
    "id": 2518,
    "\u2581\u13a0\u13ad": 2519,
    "\u13c2\u13a9\u13db": 2520,
    "\u2581\u13a0\u13a9\u13aa\u13b2": 2521,
    "\u13b4\u13c5": 2522,
    "\u2581\u13a4\u13c2\u13b2": 2523,
    "\u13c9\u13d7": 2524,
    "\u13d9\u13b4\u13b0\u13cf": 2525,
    "\u2581\u13ad\u13e9": 2526,
    "\u13cc\u13c1": 2527,
    "\u13b5\u13cf\u13f1": 2528,
    "\u2581\u13e5\u13d9": 2529,
    "\u2581\u13eb\u13a9": 2530,
    "\u2581\u13a6\u13f2\u13b5": 2531,
    "\u13cd\u13d4\u13c5\u13af": 2532,
    "\u2581\u13a2\u13e5\u13f0\u13b8": 2533,
    "l": 2534,
    "\u13a9\u13b3": 2535,
    "\u2581\u13a0\u13c2\u13eb\u13be": 2536,
    "\u2581\u13a0\u13f0": 2537,
    "\u13f2\u13af\u13cd\u13d7": 2538,
    "\u2581\u13a2\u13cf\u13b5\u13f1": 2539,
    "\u13c5\u13d3\u13d3": 2540,
    "\u13c1\u13e4\u13d7": 2541,
    "\u2581\u13a0\u13be\u13b5": 2542,
    "\u13aa\u13b5\u13f0\u13d7": 2543,
    "\u2581\u13a0\u13a2\u13d2": 2544,
    "\u13c4\u13a6": 2545,
    "\u13b6\u13e8": 2546,
    "\u2581\u13af\u13cd\u13a9\u13c1": 2547,
    "\u2581\u13c7": 2548,
    "\u2581\u13a0\u13a6\u13d4": 2549,
    "\u2581\u13e5\u13c4": 2550,
    "\u13a9\u13d3": 2551,
    "\u2581\u13a0\u13cb": 2552,
    "\u2581\u13c2\u13a8": 2553,
    "\u13e5\u13f2\u13cf": 2554,
    "\u13ac\u13bf": 2555,
    "\u13db\u13c2": 2556,
    "\u2581\u13af\u13a6\u13d8\u13cf": 2557,
    "\u2581\u13ad\u13b4": 2558,
    "\u13c1\u13ae": 2559,
    "\u13d7\u13e2": 2560,
    "\u13aa\u13e9\u13d8\u13ad": 2561,
    "\u13d5\u13c5": 2562,
    "\u13ec\u13c2\u13af\u13cd\u13d7": 2563,
    "\u2581\u13da\u13a7\u13bf\u13c5": 2564,
    "\u2581\u13a4\u13c2\u13e3\u13db": 2565,
    "\u2581\u13a3\u13a9\u13be": 2566,
    "\u2581\u13a0\u13c9": 2567,
    "\u2581\u13a0\u13d4\u13b4\u13a6\u13d2": 2568,
    "\u2581\u13a4\u13c3\u13c1\u13b4": 2569,
    "\u13af\u13eb": 2570,
    "\u2581\u13d5\u13a6\u13da\u13e9\u13d7\u13d2": 2571,
    "\u2581\u13e7\u13e9\u13ab\u13d4\u13c5\u13d2": 2572,
    "\u2581\u13d3\u13d5\u13f2\u13b2\u13cd\u13ac": 2573,
    "\u2581\u13f1\u13a8\u13d0": 2574,
    "\u2581\u13a4\u13c2\u13b7\u13e4\u13d7": 2575,
    "\u2581\u13da\u13ec\u13a1": 2576,
    "\u2581\u13a0\u13a6\u13cd\u13a6\u13c2": 2577,
    "\u2581\u13a0\u13da\u13a2\u13cd\u13db": 2578,
    "\u2581\u13a4\u13f0\u13b8\u13c5": 2579,
    "\u2581\u13a6\u13b8\u13c9": 2580,
    "\u2581\u13d3\u13c2\u13c1\u13b8": 2581,
    "\u2581\u13a0\u13d3\u13d9\u13b5\u13cd\u13d7": 2582,
    "\u13be\u13c4\u13aa\u13eb\u13cf": 2583,
    "\u2581\u13a4\u13a6\u13d4\u13b2\u13d2": 2584,
    "\u2581\u13be\u13a9": 2585,
    "\u2581\u13a3\u13b5\u13e9": 2586,
    "\u2581\u13a4\u13ec\u13da": 2587,
    "\u2581\u13a4\u13b7\u13e4\u13b4": 2588,
    "\u2581\u13d5\u13aa\u13ea\u13b8": 2589,
    "\u2581\u13e4\u13ae": 2590,
    "\u2581\u13a4\u13db\u13d0\u13c5": 2591,
    "\u13f2\u13af\u13cd\u13d4\u13c5": 2592,
    "\u2581\u13a6\u13b4\u13c2": 2593,
    "\u13ef\u13c5\u13b2": 2594,
    "\u2581\u13a6\u13c1\u13e5": 2595,
    "\u13d3\u13b4\u13c5\u13db": 2596,
    "\u2581\u13a4\u13c5\u13ce": 2597,
    "\u13b0\u13b2\u13cd\u13d7": 2598,
    "\u2581\u13a1\u13c2\u13be\u13ef": 2599,
    "\u2581\u13a2\u13cd\u13a6\u13b3\u13d7": 2600,
    "\u2581\u13a5\u13d8\u13a3\u13a9": 2601,
    "\u2581\u13a6\u13cc\u13c6\u13b8": 2602,
    "\u2581\u13d1\u13d3\u13b3\u13cd\u13aa\u13af": 2603,
    "\u2581\u13d7\u13ab\u13d3\u13b8\u13d7\u13f1": 2604,
    "\u2581\u13e4\u13a6\u13b3\u13ef": 2605,
    "\u2581\u13a1\u13b9\u13c2\u13d3": 2606,
    "\u2581\u13e7\u13ef\u13d6\u13c3\u13af": 2607,
    "\u2581\u13e7\u13d9\u13d3\u13cb\u13d3": 2608,
    "\u2581\u13ef\u13c3\u13a9\u13f3": 2609,
    "\u2581\u13a4\u13ef\u13d6\u13c3\u13af": 2610,
    "\u2581\u13eb\u13da\u13a7\u13bf\u13c1": 2611,
    "\u2581\u13d7\u13cd\u13c6\u13a8\u13c2": 2612,
    "\u2581\u13a2\u13e4\u13b3\u13d7\u13d9\u13ae\u13cd\u13d7": 2613,
    "\u2581\u13ac\u13c9\u13ce\u13b0": 2614,
    "\u2581\u13d5\u13a8\u13e5\u13f0\u13b8\u13d4\u13c5\u13a9": 2615,
    "\u2581\u13a4\u13be\u13e2\u13c9\u13d7": 2616,
    "\u2581\u13bb\u13be\u13cc": 2617,
    "\u2581\u13c2\u13e3\u13ea\u13d2": 2618,
    "\u2581\u13a2\u13f3\u13e9\u13c2\u13cc\u13c5\u13af": 2619,
    "\u2581\u13d1\u13be\u13d3\u13b4\u13a9": 2620,
    "\u2581\u13a6\u13b6\u13af\u13cd\u13d7\u13f3\u13b6\u13d7": 2621,
    "\u2581\u13a1\u13e5\u13b8\u13c9\u13d3": 2622,
    "\u2581\u13a4\u13c2\u13c3\u13ae\u13b4": 2623,
    "\u2581\u13c5\u13d3\u13f3\u13b5\u13cd\u13d9\u13d7\u13f1": 2624,
    "\u2581\u13a8\u13e3\u13cd\u13d3\u13e9\u13d7\u13d9\u13af": 2625,
    "\u2581\u13d7\u13a7\u13be\u13e9\u13db\u13cd\u13d7": 2626,
    "\u2581\u13a0\u13a6\u13b5\u13cd\u13ac": 2627,
    "\u2581\u13c4\u13b5\u13cd\u13d4\u13be": 2628,
    "\u2581\u13cd\u13a9\u13c4\u13cd\u13db": 2629,
    "\u2581\u13a2\u13f2\u13cd\u13db": 2630,
    "\u2581\u13a6\u13cc\u13be\u13b5": 2631,
    "\u2581\u13c5\u13d3\u13ac\u13c1\u13b5": 2632,
    "\u2581\u13f1\u13c5\u13a6\u13b5\u13cd\u13d3": 2633,
    "\u2581\u13aa\u13cc\u13c2": 2634,
    "\u2581\u13a2\u13f3\u13e9\u13c2\u13b8": 2635,
    "\u2581\u13ed\u13f4\u13b8": 2636,
    "\u2581\u13a4\u13b5\u13cd\u13d4\u13f4\u13d7": 2637,
    "\u2581\u13a0\u13c2\u13c8\u13b7": 2638,
    "\u2581\u13a4\u13f0\u13b8\u13ae": 2639,
    "\u2581\u13d1\u13d5\u13d8\u13f4\u13db": 2640,
    "\u2581\u13c4\u13be\u13b5\u13cd\u13d4\u13c1": 2641,
    "\u2581\u13d7\u13d3\u13b4\u13b2\u13cd\u13a6": 2642,
    "\u2581\u13af\u13a8\u13f4": 2643,
    "\u2581\u13a2\u13f3\u13db\u13bf\u13d5\u13a9": 2644,
    "\u13cd\u13a6\u13a2\u13b2\u13be": 2645,
    "\u2581\u13a2\u13a7\u13c1\u13e8\u13af": 2646,
    "\u2581\u13d7\u13d3\u13c2\u13d0\u13d7\u13f1": 2647,
    "\u2581\u13d3\u13d3\u13b6\u13c2": 2648,
    "\u2581\u13eb\u13e8\u13b7\u13e4\u13d7\u13f1": 2649,
    "\u13b8\u13c9\u13d5\u13cd\u13d7": 2650,
    "\u2581\u13a4\u13c2\u13b7\u13af\u13cd\u13d7\u13f1": 2651,
    "\u2581\u13a4\u13b5\u13e0\u13ef\u13cd\u13d5\u13cd\u13d7": 2652,
    "\u2581\u13db\u13cd\u13c6\u13b8\u13af": 2653,
    "\u2581\u13a0\u13c2\u13e6\u13a2": 2654,
    "\u2581\u13a2\u13e3\u13b5\u13cd\u13d5\u13b8\u13d9\u13d7": 2655,
    "\u2581\u13d7\u13a6\u13b4\u13c2": 2656,
    "\u2581\u13a2\u13e3\u13db\u13a6\u13c5\u13af": 2657,
    "\u2581\u13a0\u13d9\u13b4\u13b0\u13af\u13cd\u13d9\u13d7": 2658,
    "\u2581\u13a4\u13db\u13aa\u13d7\u13f1": 2659,
    "\u2581\u13a2\u13f3\u13e9\u13c1\u13b8\u13af": 2660,
    "\u2581\u13a4\u13c2\u13a9\u13cd\u13d7": 2661,
    "\u2581\u13a0\u13a9\u13c5\u13cf\u13db": 2662,
    "\u2581\u13ed\u13c2\u13b6\u13af\u13cd\u13d7\u13f1": 2663,
    "\u2581\u13a4\u13d3\u13d9\u13b5\u13cd\u13d3\u13c1\u13b4\u13a2": 2664,
    "\u2581\u13a4\u13ea\u13b5\u13cd\u13d7": 2665,
    "\u2581\u13a2\u13e3\u13d3\u13e1\u13ac": 2666,
    "\u2581\u13be\u13c2\u13a6\u13d4\u13b2\u13be": 2667,
    "\u2581\u13a4\u13c1\u13b7\u13c5\u13a9": 2668,
    "\u2581\u13a7\u13c3\u13ae\u13d3": 2669,
    "\u2581\u13a4\u13c1\u13cd\u13d3\u13b3": 2670,
    "\u2581\u13a4\u13d3\u13d9\u13b5\u13e3\u13d8\u13f3": 2671,
    "\u2581\u13e6\u13d3\u13b8": 2672,
    "\u2581\u13a4\u13ea\u13d9\u13b5\u13cd\u13d7": 2673,
    "\u2581\u13ac\u13e9\u13d4\u13f2\u13ce\u13b4": 2674,
    "\u2581\u13a2\u13a8\u13ac\u13c1\u13d7": 2675,
    "\u2581\u13d9\u13d3\u13f3": 2676,
    "\u2581\u13be\u13a9\u13ea\u13d2\u13a9": 2677,
    "\u2581\u13c2\u13a6\u13b5\u13cd\u13d7\u13cd\u13a8\u13cd\u13d7": 2678,
    "\u2581\u13e9\u13a9": 2679,
    "\u2581\u13a4\u13c2\u13c7\u13d3\u13b8\u13a2": 2680,
    "\u2581\u13aa\u13e2\u13c5": 2681,
    "\u2581\u13a0\u13a6\u13cd\u13ac": 2682,
    "\u2581\u13e5\u13cd\u13c6\u13ef": 2683,
    "\u2581\u13a4\u13c2\u13c1\u13ab": 2684,
    "\u2581\u13d7\u13a6\u13b6\u13d7": 2685,
    "\u13a6\u13f4\u13b5\u13a8": 2686,
    "\u2581\u13d9\u13a9\u13be": 2687,
    "\u2581\u13a4\u13be\u13d5\u13c5\u13af": 2688,
    "\u2581\u13f1\u13da\u13c2": 2689,
    "\u2581\u13a4\u13c2\u13c3\u13ae\u13b8\u13af": 2690,
    "\u2581\u13c2\u13ac\u13c1\u13ad": 2691,
    "\u2581\u13f4\u13a8\u13e5": 2692,
    "\u2581\u13a6\u13c1\u13b3": 2693,
    "\u2581\u13a4\u13b5\u13ec\u13e8\u13af": 2694,
    "\u2581\u13da\u13c2\u13c5\u13ce": 2695,
    "\u2581\u13a0\u13c2\u13c1\u13b5": 2696,
    "\u2581\u13d9\u13e7\u13be\u13d3\u13c5\u13db\u13a2": 2697,
    "\u2581\u13da\u13c1\u13e4\u13b8\u13a9": 2698,
    "\u2581\u13a2\u13f3\u13db\u13c1\u13d7\u13f1": 2699,
    "\u2581\u13a4\u13ea\u13c5\u13cd\u13d7\u13f1": 2700,
    "\u2581\u13a4\u13d3\u13b4\u13c5\u13db": 2701,
    "\u2581\u13a4\u13d3\u13d1\u13ef": 2702,
    "\u2581\u13a4\u13f0\u13b8\u13af": 2703,
    "\u2581\u13a4\u13be\u13b5\u13cd\u13d3\u13f4\u13d7\u13f1": 2704,
    "\u2581\u13e4\u13b2\u13a9": 2705,
    "\u2581\u13c4\u13be\u13db\u13c1\u13b4\u13a2": 2706,
    "\u2581\u13a0\u13c6\u13d3\u13c5\u13db": 2707,
    "\u13c1\u13e4\u13b8\u13af": 2708,
    "\u2581\u13eb\u13da\u13ef\u13c5\u13b2\u13a9": 2709,
    "\u2581\u13a3\u13ac\u13d2": 2710,
    "\u2581\u13be\u13a6\u13d4\u13b2\u13be": 2711,
    "\u2581\u13a4\u13ea\u13c5\u13d2\u13a9": 2712,
    "\u2581\u13da\u13cc\u13b3\u13d3\u13c1": 2713,
    "\u2581\u13a4\u13ea\u13d9\u13b8\u13a9": 2714,
    "\u2581\u13be\u13c2\u13ea\u13cd\u13ac\u13a2": 2715,
    "\u2581\u13e9\u13be": 2716,
    "\u2581\u13a0\u13e5\u13b8\u13a8\u13b3\u13cd\u13d7\u13f1": 2717,
    "\u2581\u13d3\u13d5\u13f2\u13b2\u13cd\u13ac\u13a2": 2718,
    "\u2581\u13a8\u13a6\u13ab\u13f4\u13a1": 2719,
    "\u2581\u13e7\u13d2\u13af": 2720,
    "\u2581\u13d5\u13b3": 2721,
    "\u2581\u13a7\u13c5\u13d1\u13b8": 2722,
    "\u13a6\u13d4\u13af": 2723,
    "\u13cf\u13c5\u13d3": 2724,
    "\u2581\u13a2\u13be\u13a9": 2725,
    "\u2581\u13a4\u13c4\u13aa\u13e8\u13a9": 2726,
    "\u2581\u13a0\u13ce\u13cd\u13a9\u13c2\u13c3\u13c5": 2727,
    "\u2581\u13a4\u13f0\u13b8\u13c1\u13a2": 2728,
    "\u2581\u13a0\u13e8\u13ef\u13a2": 2729,
    "\u2581\u13a4\u13c2\u13f0": 2730,
    "\u13c4\u13aa\u13e9": 2731,
    "\u2581\u13a4\u13c2\u13f0\u13b8\u13c1": 2732,
    "\u2581\u13a0\u13eb\u13cd\u13a9": 2733,
    "\u2581\u13a7\u13aa": 2734,
    "\u2581\u13a0\u13e4\u13b5\u13cd\u13db\u13a2": 2735,
    "\u13d3\u13c2": 2736,
    "\u13cd\u13d4\u13c1": 2737,
    "\u2581\u13a4\u13e5\u13b8\u13d2": 2738,
    "\u2581\u13e7\u13d9": 2739,
    "\u13c1\u13b8\u13be": 2740,
    "\u13cd\u13db\u13be": 2741,
    "\u2581\u13c4\u13e9\u13c1\u13b4\u13a2": 2742,
    "\u13c5\u13cd\u13d7\u13f1": 2743,
    "\u2581\u13a6\u13ec\u13c2\u13cd\u13ac\u13a2": 2744,
    "\u2581\u13a4\u13b6\u13a9\u13b8\u13a2": 2745,
    "\u13a6\u13d3\u13c1": 2746,
    "\u13d3\u13f1\u13b5": 2747,
    "\u2581\u13a3\u13ac": 2748,
    "\u2581\u13be\u13cb\u13c1\u13b8": 2749,
    "\u2581\u13d7\u13a6\u13c5\u13cc\u13d7": 2750,
    "\u13f2\u13af": 2751,
    "\u2581\u13a6\u13f0\u13e5": 2752,
    "\u2581\u13d7\u13aa\u13ea\u13b6\u13d7": 2753,
    "\u2581\u13e7\u13ec": 2754,
    "\u2581\u13a4\u13b4\u13c1": 2755,
    "\u13a8\u13db": 2756,
    "\u13c5\u13c3": 2757,
    "\u13a2\u13f4": 2758,
    "\u13c6\u13b5": 2759,
    "\u2581\u13f1\u13cf": 2760,
    "\u2581\u13d5\u13ad": 2761,
    "\u13c5\u13cf\u13d3\u13cd\u13d7": 2762,
    "\u2581\u13a4\u13a7\u13db\u13a2": 2763,
    "\u2581\u13d5\u13aa": 2764,
    "\u13d3\u13b3": 2765,
    "\u13b0\u13b5": 2766,
    "\u13cd\u13d3\u13f4": 2767,
    "\u13a6\u13d4\u13b0": 2768,
    "\u13c1\u13c6": 2769,
    "\u2581\u13a4\u13b2\u13a2": 2770,
    "\u2581\u13c2\u13d5\u13ac\u13c1": 2771,
    "\u13cf\u13c6": 2772,
    "\u13eb\u13cd\u13d7": 2773,
    "\u13e3\u13db\u13c1\u13af": 2774,
    "\u2581\u13a9\u13b6\u13a2": 2775,
    "\u2581\u13a2\u13af": 2776,
    "\u13c2\u13cc\u13c1": 2777,
    "\u13be\u13a5": 2778,
    "\u13db\u13d9\u13d7": 2779,
    "\u2581\u13c4\u13b5\u13cd\u13d4\u13c1\u13ae": 2780,
    "\u13e4\u13b5\u13a6": 2781,
    "\u2581\u13f0\u13b5\u13cd\u13a8": 2782,
    "\u2581\u13f1\u13d9\u13a6": 2783,
    "\u13a1\u13b8\u13a9": 2784,
    "\u13a0\u13c8": 2785,
    "\u2581\u13a6\u13c3": 2786,
    "\u13e5\u13aa\u13e9\u13db": 2787,
    "\u13cd\u13c6\u13d9\u13c5": 2788,
    "\u2581\u13a2\u13e3\u13d3\u13c5\u13d8": 2789,
    "\u2581\u13a3\u13a9\u13c2": 2790,
    "\u2581\u13a4\u13b2": 2791,
    "\u2581\u13a2\u13ac\u13c1": 2792,
    "\u2581\u13a0\u13f2": 2793,
    "\u13b5\u13ef": 2794,
    "\u13c1\u13ae\u13a2": 2795,
    "\u13d7\u13cf": 2796,
    "\u13d9\u13ae\u13cd\u13d7": 2797,
    "\u13a6\u13d0\u13af": 2798,
    "\u13b8\u13c9\u13d9\u13d7\u13f1": 2799,
    "\u2581\u13a9\u13b3\u13af": 2800,
    "\u13be\u13c4\u13aa\u13e8\u13af": 2801,
    "\u13b7\u13e3": 2802,
    "\u2581\u13a4\u13be\u13db\u13a6\u13c1": 2803,
    "\u2581\u13a1\u13e5\u13c1\u13d7": 2804,
    "\u2581\u13a2\u13b3": 2805,
    "\u13b5\u13aa": 2806,
    "\u13aa\u13b5\u13f0\u13a1": 2807,
    "\u13cd\u13d3\u13e9\u13d7\u13d9\u13af": 2808,
    "\u2581\u13a6\u13c5": 2809,
    "\u2581\u13a4\u13b6\u13d2": 2810,
    "\u2581\u13ee": 2811,
    "\u2581\u13a4\u13f2\u13b1\u13ce": 2812,
    "\u2581\u13b9": 2813,
    "\u2581\u13a4\u13b6": 2814,
    "\u13b5\u13cd\u13d4\u13c1": 2815,
    "\u13d9\u13b8": 2816,
    "\u13cd\u13a6\u13a9": 2817,
    "\u13f0\u13c2": 2818,
    "\u2581\u13e5\u13c2": 2819,
    "\u2581\u13f2\u13a9": 2820,
    "\u13c5\u13d3\u13d7\u13cd\u13d9\u13d7": 2821,
    "\u2581\u13d7\u13be\u13d3": 2822,
    "\u2581\u13e5\u13be": 2823,
    "\u13cd\u13d4\u13f1": 2824,
    "\u2581\u13a0\u13c2\u13d0\u13a2\u13c3": 2825,
    "\u2581\u13e5\u13c2\u13a6\u13ea": 2826,
    "\u2581\u13c4\u13ea": 2827,
    "\u2581\u13a0\u13d3\u13c5\u13d6\u13b5\u13d9": 2828,
    "\u2581\u13eb\u13d3\u13c2": 2829,
    "\u13a9\u13a1\u13b8": 2830,
    "\u2581\u13a0\u13cd\u13aa\u13af\u13c3": 2831,
    "\u13a1\u13b4\u13a2": 2832,
    "\u2581\u13c4\u13c2\u13ea\u13d2": 2833,
    "\u13a0\u13ce": 2834,
    "\u2581\u13aa\u13e2\u13d2": 2835,
    "\u2581\u13f1\u13d7\u13a6": 2836,
    "\u13e0\u13f1": 2837,
    "\u2581\u13be\u13ac\u13c1\u13b8": 2838,
    "\u2581\u13e5\u13c1\u13b8": 2839,
    "\u2581\u13be\u13c2\u13ea\u13cd\u13ac": 2840,
    "\u2581\u13be\u13bf\u13c9": 2841,
    "\u13cd\u13d5": 2842,
    "\u2581\u13c2\u13a6\u13b5\u13cd\u13d7\u13cd\u13a8": 2843,
    "\u13f0\u13ad": 2844,
    "\u13d7\u13c2\u13c5\u13cc\u13d7": 2845,
    "\u2581\u13a3\u13d3\u13c5\u13db": 2846,
    "\u2581\u13e3\u13d3": 2847,
    "\u13ad\u13d5\u13ec": 2848,
    "\u13a8\u13c2": 2849,
    "\u2581\u13a4\u13f2\u13af\u13cd\u13d4\u13c1": 2850,
    "\u13d7\u13d2": 2851,
    "\u13a8\u13b5\u13a0": 2852,
    "\u13aa\u13b1\u13cd\u13d7": 2853,
    "\u13a0\u13d5\u13b8": 2854,
    "\u2581\u13af\u13f0\u13b8": 2855,
    "\u13d7\u13a6\u13d8\u13ef": 2856,
    "\u13a0\u13a9\u13be": 2857,
    "\u13ce\u13b4": 2858,
    "\u2581\u13a1\u13d9\u13ae": 2859,
    "\u2581\u13e7\u13be\u13b4\u13af\u13d0": 2860,
    "\u2581\u13e7\u13d3\u13c5\u13db": 2861,
    "\u2581\u13d5\u13a4\u13b4\u13d4\u13c5": 2862,
    "\u13a7\u13b5\u13e8\u13af": 2863,
    "\u2581\u13da\u13c2\u13b8\u13eb\u13cd\u13d3\u13c1\u13b8": 2864,
    "\u2581\u13a4\u13c1\u13a6\u13b8": 2865,
    "\u2581\u13a0\u13d3\u13c1\u13e3\u13cd\u13da\u13b6": 2866,
    "\u13e0\u13a0\u13cf": 2867,
    "\u13cd\u13c6\u13c2\u13aa\u13d9\u13d7\u13f1": 2868,
    "\u13b6\u13d0\u13c5": 2869,
    "\u2581\u13a4\u13be\u13b5\u13ae\u13b5\u13e4": 2870,
    "\u2581\u13a2\u13d9\u13bb": 2871,
    "\u2581\u13cf\u13d3\u13c1\u13b8": 2872,
    "\u2581\u13c5\u13f2": 2873,
    "\u2581\u13e7\u13c2\u13b3\u13eb\u13a2\u13cd\u13d7": 2874,
    "\u2581\u13a0\u13e5\u13cd\u13d5\u13b8\u13d7": 2875,
    "\u2581\u13a0\u13f2\u13b1\u13d2": 2876,
    "\u13b5\u13cd\u13d7\u13f1": 2877,
    "\u2581\u13e3\u13be\u13eb": 2878,
    "\u13b6\u13af\u13cd\u13d7\u13f1": 2879,
    "\u2581\u13a4\u13be\u13d5\u13c5": 2880,
    "\u2581\u13f1\u13d3\u13c2": 2881,
    "\u13f2\u13a2\u13f4": 2882,
    "\u2581\u13d7\u13aa\u13ea\u13b5": 2883,
    "\u13ad\u13c4\u13b8\u13af": 2884,
    "rs": 2885,
    "\u2581\u13e5\u13d5\u13a6": 2886,
    "\u2581Philadelphia": 2887,
    "\u2581\u13a0\u13d3\u13ea\u13b3\u13a9\u13cd\u13a9": 2888,
    "\u2581\u13d0\u13b5\u13b9\u13c5": 2889,
    "\u2581\u13d5\u13e6\u13af\u13f3\u13ce\u13cd\u13d7": 2890,
    "\u2581\u13da\u13cd\u13c6\u13b8\u13d4\u13c1": 2891,
    "\u2581\u13f1\u13c4\u13b5\u13cd\u13d4\u13be": 2892,
    "\u2581\u13a7\u13c2\u13b5\u13ef": 2893,
    "\u2581\u13c6\u13b3\u13c6": 2894,
    "\u2581\u13d7\u13a6\u13d2\u13cd\u13d4\u13c5": 2895,
    "\u2581\u13a2\u13e6\u13af\u13f3\u13af": 2896,
    "\u2581\u13c7\u13da\u13a1\u13b5": 2897,
    "\u2581\u13a4\u13e3\u13b4\u13d3": 2898,
    "\u2581\u13d7\u13be\u13d5\u13f2\u13b2\u13cd\u13a9": 2899,
    "\u2581\u13d7\u13c7\u13c5\u13d2": 2900,
    "\u2581\u13e7\u13b4\u13af\u13cc\u13c5\u13af": 2901,
    "\u2581\u13e7\u13f4\u13e8": 2902,
    "\u2581\u13a4\u13ec\u13d3\u13b8": 2903,
    "\u2581\u13da\u13a7\u13bf\u13c1": 2904,
    "\u2581\u13d3\u13f3\u13c2\u13b6\u13d2": 2905,
    "\u2581\u13a0\u13da\u13b8\u13d7": 2906,
    "\u2581\u13a1\u13c5\u13cd\u13d7": 2907,
    "\u2581\u13a4\u13d3\u13c5\u13b5\u13f0\u13a5": 2908,
    "\u2581\u13a2\u13d7\u13c5\u13c1": 2909,
    "\u2581\u13f1\u13e3\u13d3\u13c5\u13d6\u13d7\u13cd\u13a8\u13cd\u13d7": 2910,
    "\u2581\u13a2\u13e5\u13c6\u13b5\u13cf": 2911,
    "\u2581\u13ac\u13e9\u13e0\u13ef\u13cd\u13d7": 2912,
    "\u2581\u13a2\u13e7\u13be\u13d3\u13b3": 2913,
    "\u2581\u13d7\u13e5\u13b8\u13eb\u13cd\u13d3\u13c1\u13d7\u13f1": 2914,
    "\u2581\u13d7\u13a6\u13b8\u13eb\u13cd\u13d3\u13c1\u13b8\u13af": 2915,
    "\u2581\u13a4\u13d3\u13d1\u13f1": 2916,
    "\u2581\u13da\u13db\u13db\u13c1": 2917,
    "\u2581\u13a8\u13c5\u13a2\u13cd\u13d7": 2918,
    "\u2581\u13a1\u13e3\u13c2\u13b5": 2919,
    "\u2581\u13d5\u13aa\u13ea\u13b5\u13cd\u13ac": 2920,
    "\u2581\u13d7\u13db\u13d3\u13c5\u13af": 2921,
    "\u2581\u13d7\u13a8\u13e5\u13be\u13dd\u13a2": 2922,
    "\u2581\u13a4\u13d2\u13af\u13f0\u13f1": 2923,
    "\u2581\u13a6\u13d3\u13b7\u13ef\u13db": 2924,
    "\u2581\u13a0\u13be\u13db\u13a9\u13cd\u13a9": 2925,
    "\u2581\u13d7\u13ac\u13aa\u13e9\u13db\u13d7": 2926,
    "\u2581\u13a0\u13a9\u13b7\u13e5\u13b8": 2927,
    "\u2581\u13f1\u13aa\u13b5\u13a6": 2928,
    "\u2581\u13a0\u13c2\u13b4\u13f4\u13cd\u13a9": 2929,
    "\u2581\u13a0\u13cd\u13c6\u13da\u13b8": 2930,
    "\u2581\u13a0\u13b5\u13ae\u13b5\u13ac": 2931,
    "\u2581\u13a4\u13c2\u13aa\u13ae": 2932,
    "\u2581\u13e7\u13d3\u13b4\u13c5\u13b2": 2933,
    "\u2581\u13a4\u13be\u13d3\u13d3\u13cd\u13ac": 2934,
    "\u2581\u13c2\u13e3\u13db\u13a6": 2935,
    "\u2581\u13ac\u13e9\u13f2\u13b1\u13af\u13cd\u13d7": 2936,
    "\u2581\u13a6\u13e3\u13c3\u13cd": 2937,
    "\u2581\u13be\u13ef\u13db\u13a1\u13cd\u13d7": 2938,
    "\u2581\u13a0\u13c4\u13a6\u13b8": 2939,
    "\u2581\u13a7\u13f4\u13d0\u13b5": 2940,
    "\u2581\u13da\u13c3\u13e2\u13c5\u13a9": 2941,
    "\u2581\u13d7\u13aa\u13d1\u13b4\u13d7\u13f1": 2942,
    "\u2581\u13e7\u13f4\u13e2": 2943,
    "\u2581\u13e7\u13b4\u13d4\u13c5\u13af": 2944,
    "\u2581\u13a4\u13d3\u13b4\u13e8": 2945,
    "\u2581\u13a4\u13c4\u13aa\u13a2\u13cd\u13d7": 2946,
    "\u2581\u13e5\u13a3\u13b5": 2947,
    "\u2581\u13ac\u13c6\u13db\u13c1\u13d7\u13f1": 2948,
    "\u2581\u13a0\u13d3\u13cd\u13d3\u13e9\u13d7\u13d9\u13af": 2949,
    "\u2581\u13c2\u13e5\u13a6\u13d4\u13b2\u13be": 2950,
    "\u2581\u13c0\u13a2\u13f3": 2951,
    "\u2581\u13a5\u13e5\u13aa\u13a5\u13a9": 2952,
    "\u13b3\u13cf\u13d5\u13be": 2953,
    "\u2581\u13a4\u13be\u13b5\u13d7\u13a9\u13db": 2954,
    "\u13cd\u13d5\u13b8\u13af": 2955,
    "\u2581\u13da\u13b7\u13eb\u13cd\u13d4\u13c1\u13b2": 2956,
    "\u2581\u13a4\u13ec\u13ea\u13b3\u13c5\u13af": 2957,
    "\u13a5\u13a9": 2958,
    "\u2581\u13a2\u13e7\u13d5\u13d8\u13f4\u13db": 2959,
    "\u2581\u13a4\u13d7\u13d4\u13b2": 2960,
    "\u2581\u13a0\u13b9\u13b4\u13a9": 2961,
    "\u2581\u13d4\u13b8\u13d7": 2962,
    "\u2581\u13a2\u13a9\u13c5\u13df": 2963,
    "\u13db\u13c5\u13a2\u13cd\u13d9\u13d7\u13f1": 2964,
    "\u2581\u13cd\u13a9\u13be\u13dd\u13a2": 2965,
    "\u2581\u13a4\u13ac\u13eb\u13f3\u13ce\u13cd\u13d7": 2966,
    "\u2581\u13a6\u13c5\u13d9\u13d7": 2967,
    "\u2581\u13e7\u13be\u13c4\u13e9\u13a2": 2968,
    "\u2581\u13c4\u13e9\u13c5": 2969,
    "\u2581\u13be\u13c1\u13b2\u13be": 2970,
    "\u2581\u13a4\u13d5\u13c1\u13a2": 2971,
    "\u2581\u13a4\u13c2\u13f0\u13b8\u13d2\u13a9": 2972,
    "\u2581\u13a0\u13a9\u13f0\u13b8\u13b2": 2973,
    "\u2581\u13a4\u13a7\u13ad\u13db": 2974,
    "\u2581\u13a2\u13f3\u13d3\u13b5\u13ad": 2975,
    "\u2581\u13ed\u13c2\u13f4\u13b4\u13a2": 2976,
    "\u2581\u13e9\u13a9\u13b7\u13e8": 2977,
    "\u2581\u13a4\u13b4\u13eb\u13cd\u13d4\u13c1": 2978,
    "\u13e5\u13af\u13cd\u13d7": 2979,
    "\u2581\u13a0\u13b5\u13e5\u13d9\u13b2\u13cd\u13a8": 2980,
    "\u2581\u13a4\u13be\u13d7\u13c5\u13d7": 2981,
    "\u2581\u13a1\u13d9\u13ad": 2982,
    "\u2581\u13a4\u13cc\u13b3\u13d3\u13c5": 2983,
    "\u2581\u13a8\u13e5\u13c1\u13b8\u13af": 2984,
    "\u13c9\u13cd\u13aa": 2985,
    "\u2581\u13a5\u13a9\u13d9\u13c9": 2986,
    "\u2581\u13a4\u13ec\u13af\u13f3": 2987,
    "\u2581\u13a0\u13df\u13cd\u13db\u13a2": 2988,
    "\u2581\u13c5\u13d3\u13ac": 2989,
    "\u2581\u13ed\u13c2\u13b6\u13d2\u13a9": 2990,
    "\u2581\u13a4\u13ea\u13a7\u13c5\u13a9": 2991,
    "\u2581\u13d7\u13c2\u13a6\u13d8\u13ef": 2992,
    "\u2581\u13a4\u13c5\u13d9\u13d7\u13f1": 2993,
    "\u2581\u13a4\u13d5\u13d7\u13f1": 2994,
    "\u2581\u13be\u13cd\u13a6\u13a2\u13b2\u13be": 2995,
    "\u2581\u13c4\u13c2\u13ea\u13ce\u13b8\u13a9": 2996,
    "\u2581\u13e7\u13ec\u13b8": 2997,
    "\u2581\u13be\u13c2\u13a1\u13a2": 2998,
    "\u2581\u13a4\u13b5\u13cf\u13c2": 2999,
    "\u2581\u13a2\u13d7\u13a6\u13ea\u13cd": 3000,
    "\u2581\u13a0\u13a7\u13b5\u13ec\u13af": 3001,
    "\u2581\u13a4\u13e8\u13c9\u13d7": 3002,
    "\u13c1\u13ac": 3003,
    "\u2581\u13a4\u13ea\u13c1\u13a2": 3004,
    "\u2581\u13d7\u13df\u13cd\u13d7": 3005,
    "\u2581\u13d7\u13a6\u13b5\u13cd\u13d9\u13d7\u13ad": 3006,
    "\u2581\u13a4\u13aa\u13e9\u13db\u13d7": 3007,
    "\u2581\u13a4\u13d4\u13be": 3008,
    "\u13be\u13c4\u13aa\u13a2\u13cd\u13d7": 3009,
    "\u13cf\u13c1": 3010,
    "\u13f2\u13af\u13ce\u13b8\u13a9": 3011,
    "\u2581\u13d0\u13d3\u13bb\u13f1": 3012,
    "\u2581\u13a2\u13a9\u13c1\u13b8\u13af": 3013,
    "\u2581\u13e7\u13c1\u13b3": 3014,
    "\u13d7\u13cd\u13aa\u13c2\u13af": 3015,
    "\u2581\u13d3\u13f3\u13d3\u13b4\u13c5\u13d3": 3016,
    "\u2581\u13ef\u13a9\u13ad": 3017,
    "\u2581\u13a2\u13a6\u13c1\u13b3\u13c5\u13af": 3018,
    "\u2581\u13a2\u13ef\u13ac\u13c1\u13d7": 3019,
    "\u2581\u13a4\u13ef\u13c5\u13af": 3020,
    "\u2581\u13a6\u13c1\u13cc\u13a2\u13af": 3021,
    "\u2581\u13da\u13c2\u13b8\u13eb\u13cd\u13d3\u13c1\u13b8\u13a2": 3022,
    "\u2581\u13d7\u13d0\u13a2": 3023,
    "\u13c3\u13ae\u13cd\u13ac\u13a2": 3024,
    "\u2581\u13a1\u13d9\u13ae\u13a2": 3025,
    "\u2581\u13e5\u13a8\u13e5": 3026,
    "\u13f3\u13b5": 3027,
    "\u2581\u13ad\u13be\u13c2": 3028,
    "\u2581\u13a4\u13e9\u13db\u13ae\u13a2": 3029,
    "\u2581\u13a4\u13be\u13db\u13a6\u13c1\u13a2": 3030,
    "\u2581\u13d3\u13c8": 3031,
    "\u2581\u13cd\u13a9\u13a8\u13f3": 3032,
    "\u2581\u13a4\u13ce\u13b5\u13d4\u13c5": 3033,
    "\u2581\u13a7\u13b8": 3034,
    "\u2581\u13d7\u13cd\u13a9": 3035,
    "\u2581\u13a4\u13ef\u13a2": 3036,
    "\u2581\u13ed\u13b7\u13e8\u13a9": 3037,
    "\u2581\u13a1\u13b5\u13cd\u13a8\u13a2": 3038,
    "\u13ad\u13f2\u13b2": 3039,
    "\u2581\u13a5\u13b5": 3040,
    "\u2581\u13a0\u13d2\u13ad": 3041,
    "\u13b3\u13c1\u13a2": 3042,
    "\u13a1\u13d7": 3043,
    "\u2581\u13a4\u13d3\u13c5\u13d6\u13b8\u13a2": 3044,
    "on": 3045,
    "\u2581\u13d5\u13e5\u13b8\u13eb\u13cd\u13d3\u13c1\u13b2\u13a2": 3046,
    "\u2581\u13ac\u13d9\u13d7\u13f1": 3047,
    "\u13aa\u13b5\u13ef": 3048,
    "\u2581\u13a4\u13c3\u13ae\u13b4": 3049,
    "\u2581\u13a4\u13d3\u13c5\u13db\u13a2": 3050,
    "\u2581\u13c7\u13b5\u13e5": 3051,
    "\u2581\u13a4\u13d3\u13c5\u13ce\u13a2": 3052,
    "\u2581\u13da\u13c1\u13b4\u13a2": 3053,
    "\u2581\u13d7\u13ac\u13d7": 3054,
    "\u2581\u13be\u13be\u13db\u13c1\u13b2\u13a2": 3055,
    "\u13d3\u13cd\u13d7": 3056,
    "\u2581\u13a2\u13e6\u13af\u13f3\u13d2\u13a2": 3057,
    "\u2581\u13a6\u13d3\u13c5\u13d6\u13cd\u13ac\u13a2": 3058,
    "\u2581\u13a2\u13e6": 3059,
    "\u13c1\u13b0\u13a2": 3060,
    "\u2581\u13a4\u13f2\u13b4": 3061,
    "\u2581\u13a0\u13cd\u13a6\u13be\u13a2": 3062,
    "\u2581\u13e6\u13be": 3063,
    "\u2581\u13a0\u13c1\u13b0": 3064,
    "\u13a6\u13e8": 3065,
    "\u2581\u13da\u13c1\u13e4\u13b4\u13a2": 3066,
    "\u2581\u13a1\u13b2\u13a9": 3067,
    "\u2581\u13a1\u13b5\u13a9": 3068,
    "\u2581\u13cc\u13b5": 3069,
    "\u2581\u13a4\u13e2": 3070,
    "\u13f2\u13b0\u13ce\u13b8": 3071,
    "\u2581\u13a4\u13c5\u13c5": 3072,
    "\u13cd\u13db\u13f1": 3073,
    "\u13bf\u13a2": 3074,
    "\u2581\u13a4\u13ea\u13c5\u13ce\u13a2": 3075,
    "\u2581\u13e7\u13be\u13c4\u13aa\u13eb\u13ce\u13d7": 3076,
    "\u2581\u13a0\u13cd\u13db\u13a2": 3077,
    "\u2581\u13c5\u13d3\u13f3\u13be\u13b5\u13cd\u13aa\u13b8\u13d4": 3078,
    "\u2581\u13a4\u13e9\u13c2": 3079,
    "\u2581\u13d7\u13ac\u13e9\u13d3\u13c2\u13b8\u13a2\u13cd": 3080,
    "\u2581\u13a9\u13b5": 3081,
    "\u13cd\u13aa\u13c3": 3082,
    "\u2581\u13aa\u13cd\u13d4": 3083,
    "\u2581\u13a0\u13d3\u13c5\u13d6\u13cd\u13ac\u13a2": 3084,
    "\u2581\u13a4\u13be\u13c4\u13aa\u13eb\u13d2": 3085,
    "\u2581\u13a4\u13aa\u13b2\u13a9": 3086,
    "\u2581\u13d7\u13c2\u13e9\u13be\u13a6\u13b3": 3087,
    "\u2581\u13a4\u13ea\u13b7\u13c1\u13a2": 3088,
    "\u2581\u13a2\u13ef\u13c2\u13a2": 3089,
    "\u2581\u13a4\u13be\u13d9\u13d3\u13c6\u13cd\u13ac\u13a2": 3090,
    "\u2581\u13db\u13c2": 3091,
    "\u2581\u13a2\u13e3\u13d3": 3092,
    "\u2581\u13a6\u13e8": 3093,
    "\u2581\u13a4\u13c2\u13ac": 3094,
    "\u2581\u13d7\u13c2\u13c3": 3095,
    "\u13d9\u13a2": 3096,
    "\u13b4\u13c5\u13af": 3097,
    "\u2581\u13c5\u13d7\u13a6\u13b5\u13cd\u13d9\u13d7\u13cd\u13a8\u13a2": 3098,
    "\u13ce\u13ad": 3099,
    "\u2581\u13a0\u13c6\u13d3\u13c5\u13d6\u13d7": 3100,
    "\u2581\u13a4\u13ac": 3101,
    "\u2581\u13a6\u13da\u13f1": 3102,
    "\u2581\u13eb\u13da\u13be": 3103,
    "\u13d3\u13c1\u13df\u13f4\u13db": 3104,
    "\u2581\u13a4\u13a9\u13b8": 3105,
    "\u13b2\u13cd\u13a6": 3106,
    "\u13b1\u13cd\u13d7": 3107,
    "\u2581\u13da\u13d9": 3108,
    "\u13c2\u13eb": 3109,
    "\u2581\u13a4\u13c2\u13e9\u13db\u13d7": 3110,
    "\u2581\u13d9\u13d8": 3111,
    "\u13b3\u13cf": 3112,
    "\u13a6\u13ef": 3113,
    "\u2581\u13de": 3114,
    "\u2581\u13a0\u13eb\u13be": 3115,
    "\u2581\u13e6\u13a6": 3116,
    "\u13c1\u13e4\u13b5": 3117,
    "\u13cd\u13c6\u13c2\u13aa\u13d5\u13cd\u13d7": 3118,
    "\u2581\u13ac\u13d7\u13ad": 3119,
    "\u13e5\u13e9\u13db\u13b2": 3120,
    "\u13e2\u13c5": 3121,
    "\u2581\u13d7\u13e8\u13c2\u13d7": 3122,
    "\u2581\u13e3\u13c1": 3123,
    "\u2581\u13a4\u13be\u13c4\u13aa\u13eb\u13ce": 3124,
    "\u13cf\u13f3": 3125,
    "\u2581\u13c4\u13c5": 3126,
    "\u2581\u13a6\u13c5\u13a8": 3127,
    "\u2581\u13c2\u13a6\u13b5\u13cd\u13d9\u13d7\u13cd\u13a8": 3128,
    "\u2581\u13e7\u13c2\u13b5": 3129,
    "\u2581\u13a4\u13b5\u13ae\u13b5\u13e4": 3130,
    "\u13df\u13b6\u13cd\u13d9\u13d7": 3131,
    "\u2581\u13da\u13c1\u13b8": 3132,
    "\u2581\u13a0\u13a6\u13d5": 3133,
    "\u13be\u13c4\u13aa\u13eb\u13d2\u13af": 3134,
    "\u13b5\u13cd\u13ac": 3135,
    "\u2581\u13d7\u13a8\u13e3": 3136,
    "\u13b5\u13cd\u13d5\u13b8\u13d9\u13d7": 3137,
    "\u2581\u13a7\u13c1\u13c9": 3138,
    "\u13d7\u13cd\u13ac\u13be": 3139,
    "\u2581\u13a2\u13e5\u13a9\u13cd\u13d7": 3140,
    "\u2581\u13a0\u13a6\u13d8\u13f0": 3141,
    "\u2581\u13a0\u13cb\u13ad": 3142,
    "\u2581\u13a4\u13c1\u13b4": 3143,
    "\u13a4\u13c5\u13d3\u13d5": 3144,
    "\u13a6\u13d9\u13a5\u13af\u13cd\u13d7\u13f1": 3145,
    "\u2581\u13db\u13a9": 3146,
    "\u13a9\u13cd\u13aa": 3147,
    "\u2581\u13a5\u13cd\u13a9": 3148,
    "\u2581\u13a1\u13e3\u13ab\u13f4": 3149,
    "\u13cd\u13d5\u13b5\u13ad": 3150,
    "\u2581\u13be\u13a6\u13db": 3151,
    "\u2581\u13bf": 3152,
    "\u2581\u13a4\u13e5\u13c3": 3153,
    "\u13ce\u13b8\u13a9": 3154,
    "\u2581\u13a2\u13e5\u13b2": 3155,
    "\u13a8\u13cd\u13d7\u13d7": 3156,
    "\u2581\u13a4\u13c2\u13b8\u13c9\u13d7": 3157,
    "\u2581\u13a0\u13f2\u13b1\u13cd": 3158,
    "\u13a2\u13cd\u13d4\u13c2": 3159,
    "\u2581\u13e7\u13b4": 3160,
    "\u2581\u13c2\u13af\u13cd\u13aa": 3161,
    "\u2581\u13a1\u13b3\u13ea\u13f1": 3162,
    "\u2581\u13c2\u13ac\u13e9": 3163,
    "\u13da\u13ac": 3164,
    "\u13e6\u13c5": 3165,
    "\u2581\u13f1\u13eb": 3166,
    "\u2581\u13a0\u13d7\u13cd\u13ac": 3167,
    "\u2581\u13e3\u13c6": 3168,
    "\u2581\u13e3\u13a9": 3169,
    "\u13c1\u13cd\u13d7": 3170,
    "\u13c2\u13ac\u13a6": 3171,
    "\u13ac\u13eb\u13f3\u13af": 3172,
    "\u13c1\u13df\u13f4\u13cd\u13d7": 3173,
    "\u2581\u13a4\u13a7\u13d4": 3174,
    "\u13f2\u13aa": 3175,
    "\u13c7\u13d3\u13b5": 3176,
    "\u13b7\u13e8": 3177,
    "\u2581\u13a4\u13c2\u13d7": 3178,
    "\u2581\u13a6\u13d7": 3179,
    "\u2581\u13c1\u13b5\u13cd\u13ac": 3180,
    "\u13ce\u13b8\u13af": 3181,
    "h": 3182,
    "\u2581\u13a3\u13cd\u13d7": 3183,
    "\u13a5\u13a6": 3184,
    "\u2581\u13a4\u13ec\u13c2\u13d2": 3185,
    "\u13b4\u13c5\u13db": 3186,
    "\u13f0\u13cc\u13db": 3187,
    "\u13aa\u13e9\u13db": 3188,
    "\u2581\u13c2\u13da\u13ea\u13ce\u13b8": 3189,
    "\u2581\u13a0\u13d5": 3190,
    "\u2581\u13a0\u13f2\u13df": 3191,
    "\u2581\u13d3\u13b5\u13cd\u13d7\u13b3\u13c1\u13ac": 3192,
    "\u2581\u13be\u13cd": 3193,
    "\u13a6\u13d4": 3194,
    "\u2581\u13d7\u13a6\u13c5\u13ec": 3195,
    "\u2581\u13a4\u13ec\u13b4": 3196,
    "\u2581\u13a4\u13c1\u13b5\u13ce": 3197,
    "r": 3198,
    "\u13e5\u13a8\u13f3\u13a2": 3199,
    "\u2581\u13a7\u13b8\u13ac": 3200,
    "\u2581\u13a2\u13d5\u13b2": 3201,
    "\u13d8\u13f0": 3202,
    "\u2581\u13d3\u13c2\u13b3\u13eb\u13a5": 3203,
    "\u2581\u13d7\u13e5\u13a6\u13f4\u13b5\u13a8": 3204,
    "\u2581\u13d3\u13df\u13b6\u13cd\u13db": 3205,
    "\u2581\u13a4\u13d7\u13db\u13ae": 3206,
    "\u2581\u13a4\u13da\u13a2\u13cd\u13d4\u13c5": 3207,
    "\u2581\u13a2\u13a9\u13cd\u13a6\u13c5\u13e8": 3208,
    "\u2581\u13a4\u13ec\u13ce\u13b4": 3209,
    "\u2581\u13a4\u13cd\u13d3\u13a6\u13b8": 3210,
    "\u13a0\u13b9": 3211,
    "\u2581\u13a0\u13c2\u13d9\u13be\u13a1": 3212,
    "\u2581\u13da\u13b4\u13af\u13cc\u13c5": 3213,
    "\u2581\u13f1\u13be": 3214,
    "\u2581\u13a4\u13ea\u13a7\u13c1\u13b4": 3215,
    "\u13d4\u13be": 3216,
    "\u2581\u13a0\u13c2\u13a6\u13f4\u13b5\u13a8": 3217,
    "\u2581\u13d3\u13c2\u13a7\u13c5": 3218,
    "\u2581\u13e7\u13a6\u13f4\u13b5\u13a8": 3219,
    "\u2581\u13a4\u13c2\u13a6\u13d9\u13a5\u13d2": 3220,
    "\u13b5\u13ec\u13e8": 3221,
    "\u13c2\u13a6\u13d3": 3222,
    "\u13a4\u13cd\u13c6\u13c2\u13a9\u13d7": 3223,
    "\u13ac\u13eb\u13f3\u13cc\u13d5\u13a9": 3224,
    ".)": 3225,
    "\u2581\u13da\u13c1\u13e4\u13b8": 3226,
    "\u13a7\u13b5\u13ec\u13af": 3227,
    "\u2581\u13a4\u13c2\u13f4": 3228,
    "\u2581\u13a4\u13c2\u13a9\u13d2": 3229,
    "\u13df\u13c2\u13a9\u13d3": 3230,
    "\u2581\u13a0\u13c1\u13ae": 3231,
    "\u2581\u13a2\u13e3\u13da\u13b5": 3232,
    "\u2581\u13a4\u13be\u13c5\u13c5": 3233,
    "\u2581\u13a4\u13c2\u13cd\u13c6\u13c2\u13aa\u13d9\u13d7": 3234,
    "\u2581\u13aa\u13b9\u13b5": 3235,
    "\u2581\u13da\u13b7\u13eb\u13cd\u13d4\u13c1": 3236,
    "\u2581\u13a2\u13e5\u13cd\u13c6\u13c2\u13aa\u13d9\u13d7": 3237,
    "\u2581\u13e3\u13a8": 3238,
    "\u2581\u13a2\u13f3\u13c5\u13c1\u13d7": 3239,
    "\u2581\u13a4\u13be\u13c5\u13d7": 3240,
    "\u13d4\u13f2\u13ce\u13b8\u13a9": 3241,
    "\u13b4\u13af\u13cc\u13c5": 3242,
    "\u2581\u13a8\u13e5\u13c1\u13d7": 3243,
    "\u2581\u13a4\u13e9\u13db\u13ae": 3244,
    "\u13f4\u13d0\u13b5": 3245,
    "\u13be\u13d3\u13b4\u13a9": 3246,
    "\u2581\u13a1\u13c9\u13c4\u13b6\u13d7": 3247,
    "\u2581\u13a4\u13ad\u13b8\u13c2\u13af": 3248,
    "\u2581\u13a4\u13c2\u13da\u13ef\u13cd\u13d7": 3249,
    "\u2581\u13a4\u13d3\u13cf\u13c2\u13d5\u13be": 3250,
    "\u2581\u13a4\u13ea\u13f2\u13d3\u13db": 3251,
    "\u2581\u13c5\u13d3\u13ac\u13f4\u13c1\u13b5": 3252,
    "\u2581\u13c8\u13ef\u13cf\u13c6": 3253,
    "\u2581\u13d5\u13a8\u13a6\u13e8\u13cd\u13d7\u13cd\u13ac": 3254,
    "\u2581\u13d7\u13be\u13d9\u13c2\u13cd\u13a9": 3255,
    "\u2581\u13e6\u13a9\u13b8\u13eb\u13cd\u13d3\u13c1\u13af": 3256,
    "\u13a6\u13cc\u13ef\u13cd\u13d5\u13cd\u13d7": 3257,
    "\u2581\u13a2\u13f0\u13c6": 3258,
    "\u2581\u13a6\u13b5\u13e6\u13d9\u13d9\u13d7": 3259,
    "\u2581\u13c6\u13bb\u13c6\u13c2": 3260,
    "\u2581\u13da\u13e9\u13c2\u13a6\u13e2": 3261,
    "\u2581\u13a0\u13e3\u13ea\u13d0\u13b8\u13cd\u13d9\u13d7\u13f1": 3262,
    "\u2581\u13e7\u13e3\u13f2\u13cd": 3263,
    "\u2581\u13af\u13a6\u13d9\u13b5": 3264,
    "\u2581\u13af\u13a7\u13c5\u13ad": 3265,
    "\u2581\u13a0\u13b5\u13ae\u13b5\u13a8": 3266,
    "\u2581\u13a4\u13d3\u13db\u13db\u13c1": 3267,
    "\u2581\u13c2\u13da\u13be\u13d3\u13ea\u13ce\u13b8\u13a9": 3268,
    "\u2581\u13e7\u13a6\u13c3\u13ee": 3269,
    "\u2581\u13eb\u13c2\u13a6\u13b5\u13cd\u13d9\u13d3": 3270,
    "\u2581\u13d7\u13c9\u13f0\u13c2": 3271,
    "\u2581\u13d7\u13be\u13d3\u13c2\u13f1\u13cd\u13a9": 3272,
    "\u2581\u13d7\u13a6\u13c3\u13e3\u13df": 3273,
    "\u2581\u13be\u13c2\u13b3\u13cd\u13d3\u13b8": 3274,
    "\u2581\u13e7\u13d9\u13a2\u13d3": 3275,
    "\u2581\u13d7\u13c6\u13b3\u13cf\u13d5\u13c2": 3276,
    "\u2581\u13c4\u13ec\u13af\u13f3\u13d2\u13be": 3277,
    "\u2581\u13c5\u13d3\u13aa\u13af\u13e5": 3278,
    "\u2581\u13c5\u13c3\u13b1\u13b6\u13d7": 3279,
    "\u2581\u13c5\u13e9\u13d9\u13af": 3280,
    "\u13cd\u13a6\u13a3\u13c5": 3281,
    "\u2581\u13a4\u13ec\u13de": 3282,
    "\u2581\u13a4\u13ea\u13da\u13b2": 3283,
    "\u2581\u13e7\u13e9\u13c2\u13a6\u13dd\u13c5": 3284,
    "\u2581\u13d5\u13e5\u13f2\u13b5\u13b8\u13ad": 3285,
    "\u2581\u13a6\u13e3\u13c4\u13b8": 3286,
    "\u2581\u13ac\u13e9\u13d5\u13c1\u13b8\u13af": 3287,
    "\u2581\u13aa\u13d2\u13d4\u13c5": 3288,
    "\u2581\u13cc\u13b6\u13b5": 3289,
    "\u2581\u13a4\u13c2\u13ac\u13a5\u13cd\u13a9": 3290,
    "\u2581\u13f1\u13c4\u13b5\u13cd\u13d4\u13c5": 3291,
    "\u2581\u13a4\u13c2\u13b8\u13c9\u13d4\u13c1": 3292,
    "\u2581\u13b2\u13d7\u13cd\u13a8\u13cd\u13d7": 3293,
    "\u2581\u13b0\u13ea\u13b8\u13a6": 3294,
    "\u2581\u13e7\u13d3\u13d8\u13be\u13a2": 3295,
    "\u2581\u13d7\u13a7\u13c1\u13a2\u13cd\u13d7": 3296,
    "\u2581\u13a2\u13ac\u13ea\u13c5\u13db": 3297,
    "\u2581\u13a5\u13a9\u13c5\u13df": 3298,
    "\u2581\u13a4\u13be\u13d3\u13d1\u13f0\u13db": 3299,
    "\u2581\u13a2\u13e8\u13cd\u13d7\u13f0\u13d7\u13ad": 3300,
    "\u2581\u13a6\u13ef\u13b4\u13cd\u13d7": 3301,
    "\u2581\u13a0\u13d3\u13cd\u13d3\u13f4\u13d7": 3302,
    "\u2581\u13aa\u13e2\u13d7": 3303,
    "\u2581\u13d5\u13aa\u13e2\u13e9\u13d7\u13d2": 3304,
    "\u2581\u13e7\u13c3\u13e9": 3305,
    "\u2581\u13c5\u13d3\u13f3\u13d3\u13b4\u13c5\u13db": 3306,
    "\u2581\u13c2\u13da\u13c5\u13cf\u13f4": 3307,
    "\u2581\u13c4\u13c2\u13b2\u13be": 3308,
    "\u2581\u13d7\u13a9\u13c5\u13d2": 3309,
    "\u2581\u13a0\u13c2\u13ef\u13a2": 3310,
    "\u2581\u13a4\u13cd\u13d7\u13a9\u13db": 3311,
    "\u2581\u13d7\u13c1\u13d9\u13b2": 3312,
    "\u2581\u13a0\u13c2\u13be\u13c1\u13cd\u13ac": 3313,
    "\u2581\u13c4\u13e0\u13be\u13cd\u13db\u13be": 3314,
    "\u2581\u13a2\u13a0": 3315,
    "\u2581\u13a4\u13e2\u13c9\u13d7": 3316,
    "\u2581\u13cc\u13c8": 3317,
    "\u2581\u13da\u13a6\u13cc\u13db": 3318,
    "\u2581\u13a0\u13c6\u13b5\u13cd\u13d3\u13f4\u13d7": 3319,
    "\u2581\u13a0\u13d3\u13e0\u13cd\u13d7": 3320,
    "\u2581\u13a0\u13b9\u13f3\u13b6\u13d7": 3321,
    "\u2581\u13a2\u13e5\u13ea\u13cd\u13d7\u13f1": 3322,
    "\u2581\u13a1\u13e3\u13b8\u13c9\u13d7\u13f3": 3323,
    "\u2581\u13a4\u13c2\u13d1\u13b8\u13d3": 3324,
    "\u2581\u13ac\u13e9\u13d3\u13cd\u13d5\u13b8\u13d7": 3325,
    "\u2581\u13a0\u13c2\u13d9\u13be\u13a2": 3326,
    "\u2581\u13d9\u13d7\u13e3\u13d3\u13c5\u13db\u13a2": 3327,
    "\u13c5\u13aa\u13e4": 3328,
    "\u2581\u13eb\u13a8\u13e5\u13f2\u13b5\u13ad": 3329,
    "\u2581\u13a0\u13c1\u13e2\u13d4\u13c5\u13af": 3330,
    "\u2581\u13ac\u13c1\u13cd\u13d7": 3331,
    "\u2581\u13d3\u13ad\u13c3\u13eb": 3332,
    "\u2581\u13da\u13e6\u13af\u13cd\u13db": 3333,
    "\u2581\u13a1\u13c3\u13f1": 3334,
    "\u2581\u13a4\u13d8\u13f4\u13af": 3335,
    "\u13bf\u13d5\u13a9": 3336,
    "\u2581\u13a0\u13be\u13d3\u13d9\u13b5\u13cd\u13d3\u13c1\u13af": 3337,
    "\u2581\u13a0\u13c2\u13af\u13d7": 3338,
    "\u2581\u13a0\u13ef\u13d6\u13be": 3339,
    "\u2581\u13e7\u13d9\u13d3\u13c6\u13db": 3340,
    "\u2581\u13a0\u13c6\u13d3\u13b5\u13a2": 3341,
    "\u2581\u13a0\u13ac\u13ad\u13b8\u13db": 3342,
    "\u2581\u13a0\u13d3\u13ea\u13b3\u13a9\u13cd\u13ac": 3343,
    "\u2581\u13a2\u13a7\u13c1\u13a2\u13cd\u13d7": 3344,
    "\u2581\u13af\u13ec\u13c2\u13cd\u13ac": 3345,
    "\u2581\u13eb\u13a6\u13b6\u13af\u13cd\u13d7": 3346,
    "\u2581\u13a4\u13b6\u13af\u13cd\u13d7": 3347,
    "\u2581\u13a6\u13c6\u13d8": 3348,
    "\u2581\u13a4\u13c3\u13cd\u13db": 3349,
    "\u2581\u13a4\u13a9\u13b5\u13f2\u13e8": 3350,
    "\u2581\u13a4\u13c2\u13b5\u13e6\u13e9\u13db": 3351,
    "\u2581\u13e5\u13c5\u13d7\u13a6\u13b5\u13cd\u13d9\u13d7\u13ad": 3352,
    "\u2581\u13d3\u13ac\u13c1\u13b5": 3353,
    "\u2581\u13f1\u13cd\u13a6\u13a2\u13ae\u13cd\u13d7": 3354,
    "\u2581\u13a4\u13be\u13db\u13c1\u13b8\u13d7": 3355,
    "\u2581\u13a4\u13c2\u13cd\u13c6\u13c2\u13aa\u13d2\u13a9": 3356,
    "\u13a6\u13c3\u13b1\u13a9\u13cd\u13ac": 3357,
    "\u2581\u13a4\u13f0\u13b8\u13ce": 3358,
    "\u2581\u13d7\u13d3\u13ec\u13cd\u13d7": 3359,
    "\u2581\u13a0\u13aa\u13ce\u13ae\u13cd\u13d7": 3360,
    "\u2581\u13ac\u13e9\u13c3\u13c1\u13b4": 3361,
    "\u2581\u13a6\u13b5\u13a1\u13b5\u13a6": 3362,
    "\u2581\u13b9\u13be": 3363,
    "\u13b3\u13a9\u13d2": 3364,
    "\u2581\u13a2\u13aa\u13af": 3365,
    "\u2581\u13d5\u13ac\u13d7\u13cd\u13ac": 3366,
    "\u2581\u13a4\u13db\u13c5\u13a2\u13cd\u13d4\u13c1": 3367,
    "\u2581\u13a2\u13e5\u13c1\u13cd\u13d7": 3368,
    "\u2581\u13ae\u13c2\u13b5": 3369,
    "\u2581\u13a0\u13d3\u13f0\u13a8\u13cd\u13d7": 3370,
    "\u2581\u13a0\u13f4\u13e4\u13c2": 3371,
    "\u2581\u13a0\u13aa\u13d4\u13c5\u13af": 3372,
    "\u2581\u13a4\u13c3\u13af\u13f3\u13d7\u13f1": 3373,
    "\u2581\u13a0\u13a6\u13b8\u13d3": 3374,
    "\u2581\u13a0\u13e5\u13c5\u13cf\u13db": 3375,
    "\u2581\u13e7\u13be\u13c4\u13aa\u13eb\u13d2\u13af": 3376,
    "\u2581\u13f3\u13da\u13b5": 3377,
    "\u2581\u13a9\u13be\u13b5\u13a2": 3378,
    "\u2581\u13ad\u13c2\u13e3": 3379,
    "\u2581\u13d5\u13a7\u13c1\u13e4": 3380,
    "\u2581\u13ee\u13db": 3381,
    "\u2581\u13a4\u13be\u13a6\u13d9\u13cd\u13d5\u13a2": 3382,
    "\u2581\u13ef\u13d7\u13ad": 3383,
    "\u13b2\u13cd\u13ac\u13be": 3384,
    "\u2581\u13a7\u13c3\u13a9\u13cd\u13d7": 3385,
    "\u2581\u13c4\u13be\u13b5\u13cd\u13d3\u13c1\u13b8": 3386,
    "\u2581\u13ee\u13d3": 3387,
    "\u2581\u13a4\u13be\u13d5\u13d7\u13f1": 3388,
    "\u2581\u13a0\u13f2\u13d9\u13d7": 3389,
    "\u2581\u13d7\u13b5\u13cd\u13aa\u13b8\u13d3\u13c1\u13b8\u13af": 3390,
    "\u2581\u13a4\u13c2\u13e9\u13db\u13ae": 3391,
    "\u2581\u13a0\u13c7\u13c5\u13cd\u13d7": 3392,
    "\u13a4\u13f2": 3393,
    "\u2581\u13a0\u13e5\u13b3": 3394,
    "\u13f0\u13a2\u13b5\u13d3\u13cd\u13d7": 3395,
    "\u2581\u13e5\u13cd\u13aa\u13b5": 3396,
    "\u2581\u13d5\u13e5\u13c1\u13b8": 3397,
    "\u2581\u13a4\u13c2\u13c1\u13ac": 3398,
    "\u2581\u13a4\u13c2\u13a9\u13cd\u13d7\u13f1": 3399,
    "\u13d3\u13c5\u13d6\u13d7": 3400,
    "\u13db\u13c1\u13b2": 3401,
    "\u2581\u13a4\u13d7\u13d7\u13e2": 3402,
    "\u2581\u13ec\u13a9\u13b7\u13e8\u13a9": 3403,
    "\u2581\u13a4\u13e1\u13d7\u13cd\u13a9": 3404,
    "\u2581\u13a0\u13ac\u13d7\u13cd\u13ac\u13a2": 3405,
    "\u2581\u13a7\u13eb": 3406,
    "\u2581\u13a1\u13ae\u13be": 3407,
    "\u13d3\u13f4\u13b3\u13db": 3408,
    "\u2581\u13a0\u13d3\u13b4\u13c2\u13cd\u13ac": 3409,
    "\u2581\u13a0\u13c2\u13a9\u13cd\u13ac": 3410,
    "\u2581\u13d7\u13e5\u13be\u13eb\u13f1": 3411,
    "\u2581\u13a6\u13df\u13ae": 3412,
    "\u2581\u13a4\u13ea\u13c5\u13a9": 3413,
    "\u2581\u13a0\u13aa\u13b5\u13f0\u13d7": 3414,
    "\u2581\u13e7\u13c1\u13e4\u13a2": 3415,
    "\u2581\u13a4\u13f0\u13b8\u13ad": 3416,
    "\u13f2\u13be": 3417,
    "\u13d3\u13c1\u13ae": 3418,
    "\u13ef\u13d4\u13ae\u13cd\u13d7": 3419,
    "\u2581\u13d7\u13a7\u13c2\u13a8": 3420,
    "\u2581\u13d3\u13cd\u13db\u13a2": 3421,
    "\u2581\u13d5\u13e3\u13a7": 3422,
    "\u2581\u13a4\u13cc\u13af\u13b8\u13a2": 3423,
    "\u13cd\u13db\u13a2": 3424,
    "\u2581\u13c4\u13db\u13c5\u13a2": 3425,
    "\u2581\u13d7\u13c1\u13af": 3426,
    "\u2581\u13be\u13c6\u13cd\u13db": 3427,
    "\u2581\u13ce\u13c9": 3428,
    "\u13c2\u13ef": 3429,
    "\u2581\u13d9\u13e5": 3430,
    "\u2581\u13a0\u13e5\u13db\u13d9\u13d7": 3431,
    "\u2581\u13af\u13a0\u13c9": 3432,
    "\u2581\u13d3\u13c6\u13a7\u13be\u13c5": 3433,
    "\u2581\u13a0\u13b4\u13c2\u13cd\u13a9": 3434,
    "\u2581\u13a0\u13ef\u13a5": 3435,
    "\u13a9\u13cd\u13d7\u13f1": 3436,
    "\u2581\u13a2\u13a9\u13cd\u13a6\u13c5\u13e8\u13a2": 3437,
    "\u2581\u13a6\u13d3\u13cd\u13ac\u13a2": 3438,
    "\u2581\u13a4\u13c2\u13c1\u13e8\u13a9": 3439,
    "\u2581\u13a4\u13be\u13d3\u13c5\u13ce": 3440,
    "\u2581\u13a4\u13b4\u13c5\u13a9": 3441,
    "\u2581\u13d3\u13e4\u13b8": 3442,
    "\u2581\u13d9\u13ef": 3443,
    "\u2581\u13a6\u13c1\u13df\u13f4\u13cd\u13d7": 3444,
    "\u13c3\u13b4": 3445,
    "\u13ef\u13c5": 3446,
    "\u2581\u13a6\u13c4\u13b8\u13d2": 3447,
    "\u2581\u13d7\u13aa\u13e2": 3448,
    "\u2581\u13a0\u13b5\u13cd\u13c6\u13d7\u13cd": 3449,
    "\u2581\u13c5\u13b5\u13cc\u13b5\u13c9": 3450,
    "\u2581\u13ae\u13d3": 3451,
    "\u2581\u13a4\u13c2\u13a9\u13ce\u13a2": 3452,
    "\u13c2\u13cd\u13d9\u13d7": 3453,
    "\u2581\u13a4\u13c2\u13aa\u13b2\u13af": 3454,
    "\u2581\u13a4\u13e9\u13d4\u13c5": 3455,
    "\u2581\u13a3\u13d2": 3456,
    "\u2581\u13ac\u13a8\u13f3\u13a2": 3457,
    "\u2581\u13cf\u13b3": 3458,
    "\u2581\u13e3\u13da\u13b5\u13cd\u13ac": 3459,
    "\u2581\u13ea": 3460,
    "\u13a0\u13c6": 3461,
    "\u13d0\u13c9": 3462,
    "\u13c3\u13ae\u13b8": 3463,
    "\u13d5\u13ef\u13d9\u13d4\u13c5\u13a9": 3464,
    "\u2581\u13a6\u13ac\u13e9": 3465,
    "\u2581\u13a4\u13cd\u13c9\u13df": 3466,
    "\u2581\u13a0\u13cd\u13d8": 3467,
    "\u2581\u13d7\u13a6\u13c5": 3468,
    "\u13d4\u13c2\u13d3": 3469,
    "\u2581\u13a4\u13c1\u13b3": 3470,
    "\u2581\u13a4\u13c1\u13d2": 3471,
    "\u2581\u13a6\u13c5\u13c5\u13a2": 3472,
    "\u2581\u13aa\u13ea\u13b8\u13a9": 3473,
    "\u2581\u13a0\u13a6\u13d9": 3474,
    "\u2581\u13a4\u13a6\u13c3": 3475,
    "\u13e5\u13b6\u13cf": 3476,
    "\u2581\u13da\u13e9\u13db\u13ae": 3477,
    "\u2581\u13d3\u13b6\u13c2\u13a8\u13a2": 3478,
    "\u13a5\u13cf": 3479,
    "\u2581\u13e8\u13d7": 3480,
    "\u2581\u13c4\u13d3\u13b4\u13af": 3481,
    "\u2581\u13a4\u13ec\u13b8\u13a2": 3482,
    "\u2581\u13a1\u13a6": 3483,
    "\u13af\u13ef": 3484,
    "\u2581\u13a1\u13cd\u13a6\u13c2": 3485,
    "\u13a7\u13cf": 3486,
    "\u2581\u13c5\u13d7": 3487,
    "\u2581\u13a4\u13ed": 3488,
    "\u13d9\u13b3": 3489,
    "\u2581\u13a0\u13c2\u13f2": 3490,
    "\u13e6\u13e9\u13db": 3491,
    "\u13d9\u13b5\u13e8": 3492,
    "\u2581\u13a0\u13c2\u13cd\u13a6\u13be\u13a2": 3493,
    "\u13aa\u13b2": 3494,
    "\u13b8\u13c9\u13db\u13be": 3495,
    "\u2581\u13c4\u13cd\u13d5\u13a2": 3496,
    "\u13af\u13f3\u13b2\u13cd\u13a6": 3497,
    "\u13a1\u13b5\u13cd\u13d7": 3498,
    "\u2581\u13a0\u13d3\u13d9\u13b5\u13cd\u13d9\u13d7": 3499,
    "\u2581\u13ae\u13af": 3500,
    "\u2581\u13a4\u13c1\u13e4\u13b8\u13a2": 3501,
    "\u2581\u13a4\u13a6\u13db": 3502,
    "\u2581\u13c4\u13b5\u13cd\u13d4\u13c2\u13d9\u13b8\u13a2": 3503,
    "\u2581\u13c5\u13e9\u13cd\u13db": 3504,
    "\u2581\u13a4\u13be\u13db\u13a6\u13c5\u13a9": 3505,
    "\u2581\u13a5\u13e3": 3506,
    "\u13b5\u13b9": 3507,
    "\u2581\u13da\u13ec": 3508,
    "\u13cd\u13a6\u13c3\u13b3": 3509,
    "\u13ac\u13be\u13a8": 3510,
    "\u2581\u13f2\u13e5": 3511,
    "\u2581\u13b5\u13cf": 3512,
    "\u13cd\u13da\u13a2\u13d2": 3513,
    "\u13a7\u13c5": 3514,
    "\u2581\u13b2\u13a6": 3515,
    "\u13cd\u13d9\u13d7\u13f1": 3516,
    "\u2581\u13d5\u13c5": 3517,
    "\u2581...": 3518,
    "\u2581\u13a2\u13e5\u13a9": 3519,
    "\u2581\u13a7\u13b5": 3520,
    "ss": 3521,
    "\u2581\u13a4\u13cd\u13aa": 3522,
    "\u13e6\u13f0\u13c2": 3523,
    "\u2581\u13a4\u13e9\u13c1": 3524,
    "\u2581\u13af\u13c1\u13b8": 3525,
    "\u13ef\u13c5\u13b2\u13a9": 3526,
    "s": 3527,
    "\u2581\u13a2\u13e3\u13df\u13c2\u13ac\u13c1": 3528,
    "\u13de": 3529,
    "\u2581\u13a0\u13c2\u13d4\u13b5\u13ad": 3530,
    "\u2581\u13e5\u13aa\u13a5": 3531,
    "\u13ef\u13a0": 3532,
    "\u13eb\u13d2": 3533,
    "\u2581\u13ac\u13e9\u13cd\u13d3\u13e9\u13d7": 3534,
    "\u2581\u13a4\u13b5\u13cd\u13da\u13a2": 3535,
    "\u2581\u13a4\u13d7\u13d4\u13cd\u13d7": 3536,
    "\u13e5\u13c3\u13ae\u13cd\u13a9": 3537,
    "\u2581\u13d7\u13b2": 3538,
    "\u2581\u13be\u13d5\u13d8\u13f4": 3539,
    "\u13be\u13c9": 3540,
    "\u13d5\u13d7": 3541,
    "\u13ec\u13c2\u13cd\u13ac": 3542,
    "\u13d3\u13c5\u13d6\u13b4": 3543,
    "\u2581\u13a4\u13c2\u13b7\u13e4\u13b8": 3544,
    "\u2581\u13f1\u13d5": 3545,
    "\u2581\u13d9\u13c9": 3546,
    "\u13d8\u13c3\u13ae\u13b8\u13a9": 3547,
    "\u13e6\u13e2\u13d9\u13d7": 3548,
    "\u2581\u13d3\u13f2": 3549,
    "\u13f0\u13b8\u13b2": 3550,
    "\u13b4\u13c3": 3551,
    "\u2581\u13a0\u13a9\u13f0\u13b8\u13c5": 3552,
    "\u2581\u13a0\u13cc": 3553,
    "\u13b6\u13cf": 3554,
    "\u13f0\u13b8\u13d7": 3555,
    "\u2581\u13d3\u13c2\u13b8": 3556,
    "\u2581\u13a2\u13e3\u13b5\u13ae\u13b5": 3557,
    "\u13cf\u13be\u13cc\u13c2": 3558,
    "\u2581\u13d1\u13be\u13b4\u13c9": 3559,
    "\u13f4\u13b5": 3560,
    "\u2581\u13e5\u13c1": 3561,
    "\u2581\u13cd\u13a6": 3562,
    "\u13e3\u13b5\u13cd\u13d9": 3563,
    "\u2581\u13a4\u13ea\u13c5\u13ce\u13c3": 3564,
    "\u2581\u13ac\u13e9\u13aa\u13e9\u13db": 3565,
    "\u2581\u13d7\u13ab": 3566,
    "\u2581\u13a4\u13c1\u13c5": 3567,
    "\u2581\u13a0\u13c1\u13b6\u13af": 3568,
    "\u13a6\u13d8\u13f4": 3569,
    "\u2581\u13e7\u13c4\u13ec": 3570,
    "\u13cd\u13d4\u13c5\u13ad": 3571,
    "\u2581\u13a0\u13a6\u13d4\u13ae": 3572,
    "\u2581\u13f3\u13eb": 3573,
    "\u2581\u13d5\u13a6\u13c5": 3574,
    "\u13c1\u13ce\u13a2": 3575,
    "\u13b7\u13e4\u13b8": 3576,
    "\u2581\u13f1\u13c2\u13ac": 3577,
    "\u2581\u13da\u13c2\u13f2": 3578,
    "\u13af\u13d3": 3579,
    "\u2581\u13a4\u13c2\u13c5": 3580,
    "\u2581\u13d7\u13a9\u13a6": 3581,
    "\u13cd\u13d6": 3582,
    "\u13d5\u13ac": 3583,
    "\u13be\u13c4\u13aa\u13e9": 3584,
    "\u13b3\u13d5": 3585,
    "\u2581\u13ac\u13be": 3586,
    "\u13a4\u13cd\u13d7": 3587,
    "\u2581\u13a4\u13a6": 3588,
    "\u13db\u13c1\u13b5": 3589,
    "\u13c1\u13b8\u13ad": 3590,
    "\u2581\u13a4\u13c2\u13b6\u13d2": 3591,
    "\u2581\u13d7\u13a9\u13f2\u13af": 3592,
    "\u13ed": 3593,
    "\u13cf\u13b3": 3594,
    "\u2581\u13af\u13cd\u13a9\u13a6\u13da": 3595,
    "\u13e6": 3596,
    "\u13e3\u13b5": 3597,
    "\u13c5\u13d3\u13d7\u13cd\u13d7": 3598,
    "\u13db\u13d4\u13c2": 3599,
    "\u2581\u13be\u13d3": 3600,
    "\u2581\u13a4\u13cd\u13c6\u13c2\u13aa\u13d9\u13d7": 3601,
    "\u13e3\u13c5\u13a9": 3602,
    "\u2581\u13c4\u13ec": 3603,
    "\u2581\u13eb\u13e8\u13f2\u13ea\u13b3": 3604,
    "\u2581\u13a4\u13e9\u13d2\u13cd\u13a9\u13c2": 3605,
    "\u2581\u13a0\u13d3\u13c5": 3606,
    "\u2581\u13a4\u13f0": 3607,
    "\u13a2\u13cd\u13d9\u13d7": 3608,
    "\u2581\u13d3\u13a8\u13e3": 3609,
    "\u2581\u13a4\u13be\u13d5": 3610,
    "\u2581\u13a6\u13c2\u13cf": 3611,
    "\u2581\u13e3\u13db": 3612,
    "\u13cb": 3613,
    "\u13e9\u13db": 3614,
    "\u13e2\u13a2": 3615,
    "\u13f2\u13cd\u13d4\u13c2": 3616,
    "\u2581\u13c2\u13e8": 3617,
    "\u13d9\u13ac": 3618,
    "\u2581\u13da\u13c2\u13a7\u13b5": 3619,
    "\u13be\u13c4\u13aa\u13eb\u13ce\u13b8": 3620,
    "\u2581\u13f1\u13cd\u13a9": 3621,
    "\u13cd\u13d3\u13f1": 3622,
    "\u2581\u13c2\u13a6\u13a5\u13a9": 3623,
    "\u2581\u13a2\u13cd\u13d3": 3624,
    "\u2581\u13c8\u13b5": 3625,
    "\u13e9\u13d2": 3626,
    "\u13c7\u13c5": 3627,
    "\u2581\u13cd": 3628,
    "\u13e0\u13cd\u13d7": 3629,
    "\u13b5\u13d9\u13b4": 3630,
    "\u13c6\u13cf": 3631,
    "\u2581\u13d5\u13e8": 3632,
    "\u2581\u13e5\u13da\u13c2": 3633,
    "\u13d8\u13c3\u13b8": 3634,
    "\u13e5\u13aa\u13e9\u13db\u13d7\u13f1": 3635,
    "\u13c1\u13e8": 3636,
    "\u13a5\u13cd\u13a8\u13cd\u13d7": 3637,
    "\u2581\u13a4\u13be\u13a9\u13b8": 3638,
    "\u13f4\u13d7": 3639,
    "\u13b8\u13db": 3640,
    "\u13e8\u13d7": 3641,
    "\u13cd\u13d7\u13cd\u13a9": 3642,
    "\u2581\u13e5\u13d7": 3643,
    "\u2581\u13a4\u13ad": 3644,
    "\u2581\u13a2\u13e5\u13e0": 3645,
    "\u13aa\u13db": 3646,
    "\u2581\u13d7\u13db": 3647,
    "\u2581\u13a4\u13cd\u13d7\u13c9": 3648,
    "\u2581\u13a4\u13c3\u13ae\u13b8": 3649,
    "\u13cd\u13da": 3650,
    "\u13b4\u13a3": 3651,
    "\u2581\u13ac\u13e9\u13d3": 3652,
    "\u2581\u13a4\u13b5\u13ae\u13b5\u13e8": 3653,
    "\u13cd\u13c6\u13c2\u13aa\u13d4\u13c2": 3654,
    "\u13ec\u13a5": 3655,
    "\u2581\u13c2\u13e3\u13db\u13c1\u13b2": 3656,
    "d": 3657,
    "\u2581\u13da\u13be\u13c4\u13aa\u13eb\u13ce\u13b4": 3658,
    "\u2581\u13a4\u13c2\u13d9": 3659,
    "\u2581\u13a6\u13a6\u13b6": 3660,
    "\u2581\u13d3\u13c2\u13d9\u13a8": 3661,
    "\u2581\u13d9\u13d3\u13c6\u13cd\u13ac": 3662,
    "\u13e7\u13cd\u13c6\u13f4\u13cd\u13d7": 3663,
    "\u2581\u13e4\u13b2": 3664,
    "\u13d7\u13a6\u13b5\u13a0\u13c5\u13af\u13db": 3665,
    "\u2581\u13d5\u13a6\u13b6\u13a8\u13d2": 3666,
    "\u13d1\u13be\u13b4": 3667,
    "\u2581\u13a4\u13e6\u13f1\u13b4": 3668,
    "\u2581\u13ed\u13c2\u13b6\u13ce": 3669,
    "\u2581\u13a4\u13cc\u13af\u13b8": 3670,
    "\u13ac\u13c1\u13b5": 3671,
    "\u2581\u13d5\u13e3\u13d3\u13c5\u13db": 3672,
    "\u2581\u13a7\u13c1\u13cc": 3673,
    "\u2581\u13a0\u13cd\u13c6\u13b5\u13cd\u13ac": 3674,
    "\u2581\u13a4\u13d3\u13d1\u13f4": 3675,
    "\u2581\u13d7\u13e7": 3676,
    "\u2581\u13a4\u13be\u13c4\u13aa\u13eb\u13ce\u13b4": 3677,
    "\u2581\u13c4\u13be\u13db\u13c1\u13b4": 3678,
    "\u13a2\u13a6": 3679,
    "\u2581\u13d9\u13d3\u13ac": 3680,
    "\u2581\u13a0\u13c2\u13cd\u13a6\u13a2\u13b2": 3681,
    "\u13a4\u13d9\u13af\u13f3\u13af": 3682,
    "\u13d4\u13f2\u13cd\u13d7": 3683,
    "\u2581\u13a4\u13c2\u13f4\u13ae": 3684,
    "\u2581\u13c2\u13a8\u13ce": 3685,
    "\u2581\u13a4\u13ea\u13f4": 3686,
    "\u13d3\u13b4\u13c2\u13cd\u13ac": 3687,
    "\u2581\u13e7\u13b5\u13cf": 3688,
    "\u13cd\u13c8\u13ef": 3689,
    "\u13e0\u13e8": 3690,
    "\u13b3\u13c1": 3691,
    "\u2581\u13ec\u13a9\u13b7\u13e8": 3692,
    "\u2581\u13c2\u13a6\u13c5\u13af\u13d2": 3693,
    "\u2581\u13a6\u13a2\u13d2": 3694,
    "\u2581\u13a0\u13ab": 3695,
    "\u2581\u13a1\u13b5\u13cd\u13ac": 3696,
    "\u2581\u13be\u13ef\u13db\u13a5": 3697,
    "\u2581\u13d5\u13a6\u13a7\u13b2": 3698,
    "\u2581\u13a4\u13c1\u13dd\u13c5": 3699,
    "\u2581\u13d3\u13a9\u13b8\u13eb\u13cd\u13d3\u13c1\u13b2": 3700,
    "\u2581\u13da\u13e9\u13c2\u13a6\u13b8": 3701,
    "\u13d3\u13c2\u13b8\u13a2\u13cd\u13d7": 3702,
    "\u2581\u13a4\u13c1\u13a2\u13cd\u13d4\u13c5": 3703,
    "\u13b8\u13eb\u13cd\u13d3\u13c1\u13d7": 3704,
    "\u2581\u13e7\u13ed\u13aa\u13d9\u13d7": 3705,
    "\u13a6\u13b5\u13b7\u13a8\u13cd\u13d7": 3706,
    "\u2581\u13a5\u13de": 3707,
    "\u2581\u13c2\u13a6\u13db\u13c1\u13b2": 3708,
    "\u2581\u13a4\u13be\u13c2\u13a9\u13d2": 3709,
    "\u2581\u13aa\u13b5\u13cd\u13d7": 3710,
    "\u13a6\u13d8\u13d5\u13af": 3711,
    "\u2581\u13e7\u13c2\u13b8\u13eb\u13cd\u13d3\u13c1\u13d7": 3712,
    "\u2581\u13a0\u13e9\u13be\u13a6\u13b3": 3713,
    "\u2581\u13da\u13c3\u13b8": 3714,
    "\u2581\u13e5\u13a6\u13d8\u13cf": 3715,
    "\u2581\u13a0\u13b5\u13cf\u13be\u13af\u13cd\u13d4\u13c5\u13af": 3716,
    "\u2581\u13a0\u13c2\u13f0\u13aa\u13a9": 3717,
    "\u2581\u13a0\u13f2\u13d3\u13cc\u13b2": 3718,
    "\u2581\u13a4\u13be\u13d7\u13cd\u13a6\u13df": 3719,
    "\u2581\u13a4\u13e9\u13ad\u13c2\u13b4": 3720,
    "\u2581\u13c2\u13a9\u13ea\u13ce\u13b8\u13ad": 3721,
    "\u2581\u13c5\u13e7\u13d3\u13b4\u13c5\u13b2\u13be": 3722,
    "\u2581\u13c5\u13db\u13c6\u13d3\u13b4\u13c5\u13af": 3723,
    "\u2581\u13d7\u13e6\u13ea\u13b5\u13cd\u13a9": 3724,
    "\u2581\u13a0\u13d0\u13a5\u13cd\u13d9\u13d7": 3725,
    "\u2581\u13cf\u13b5\u13c6": 3726,
    "\u2581\u13e3\u13d3\u13f2\u13c1\u13b8\u13a9": 3727,
    "\u2581\u13a0\u13be\u13d3\u13cd\u13a6\u13b6\u13a9": 3728,
    "\u2581\u13a6\u13c5\u13c3\u13e9": 3729,
    "\u2581\u13c5\u13e5\u13ea\u13ce\u13b8\u13a9": 3730,
    "\u2581\u13a4\u13da\u13d3\u13b4\u13db": 3731,
    "\u2581\u13a0\u13d3\u13ea\u13af": 3732,
    "\u2581\u13a4\u13ea\u13d0\u13c5\u13f4": 3733,
    "\u2581\u13c4\u13be\u13d3\u13a1\u13cd\u13d7": 3734,
    "\u2581\u13e6\u13d1\u13eb": 3735,
    "\u2581\u13a4\u13bf\u13b7\u13d2\u13a9": 3736,
    "\u2581\u13a4\u13db\u13b4\u13ae": 3737,
    "\u2581\u13a0\u13aa\u13d5\u13cd\u13a9": 3738,
    "\u2581\u13a2\u13e3\u13db\u13d3\u13cd\u13d3": 3739,
    "\u2581\u13a2\u13b3\u13a9\u13f3": 3740,
    "\u2581\u13e7\u13c1\u13bf\u13a2": 3741,
    "\u2581\u13e4\u13c6\u13b3\u13c2": 3742,
    "\u2581\u13a0\u13cd\u13a9\u13d3\u13cd\u13ac": 3743,
    "\u2581\u13a4\u13c1\u13c9\u13e8": 3744,
    "\u2581\u13e7\u13c1\u13b5\u13c1": 3745,
    "\u2581\u13a4\u13b5\u13cf\u13c2\u13d5\u13c5": 3746,
    "\u2581\u13a8\u13b4\u13cf\u13f1": 3747,
    "\u2581\u13a4\u13b5\u13f2\u13d7": 3748,
    "\u2581\u13d7\u13a7\u13c3\u13a9\u13cd\u13d9\u13d7": 3749,
    "\u2581\u13a2\u13aa\u13ea\u13b3": 3750,
    "\u2581\u13d5\u13e5\u13c3\u13a9\u13cd\u13a8\u13cd\u13d7": 3751,
    "\u2581\u13be\u13a8\u13a2\u13f4": 3752,
    "\u2581\u13a0\u13be\u13d3\u13cd\u13d3\u13e9\u13d7\u13d9\u13af": 3753,
    "\u2581\u13a0\u13be\u13b5\u13cd\u13d5\u13b5\u13cd\u13a9": 3754,
    "\u2581\u13d3\u13f2\u13e4\u13cf": 3755,
    "\u2581\u13a4\u13c2\u13a9\u13b5\u13f2\u13a2\u13cd\u13d7": 3756,
    "\u2581\u13d4\u13d8\u13c4\u13a6": 3757,
    "\u2581\u13f1\u13c2\u13ac\u13c1\u13ad": 3758,
    "\u2581\u13a0\u13d3\u13c5\u13d6\u13cd\u13aa": 3759,
    "\u2581\u13da\u13a8\u13d3\u13b5\u13f4": 3760,
    "\u2581\u13c2\u13a9\u13ea\u13cf": 3761,
    "\u2581\u13a0\u13be\u13d3\u13e4\u13b5": 3762,
    "\u2581\u13d3\u13ad\u13cf": 3763,
    "\u2581\u13a0\u13e6\u13b3\u13c5": 3764,
    "\u2581\u13d5\u13e5\u13a7\u13bf\u13e9\u13d7\u13d9\u13ae\u13cd\u13d7": 3765,
    "\u2581\u13da\u13cd\u13d3\u13a6\u13b8": 3766,
    "\u2581\u13d7\u13be\u13a2\u13d2": 3767,
    "\u2581\u13f1\u13e4\u13b5\u13af\u13cd\u13a8\u13cd\u13d7": 3768,
    "\u2581\u13d7\u13a6\u13b6\u13d4\u13c5": 3769,
    "\u2581\u13da\u13ad\u13c4\u13ee": 3770,
    "\u2581\u13e7\u13be\u13ac\u13e9\u13b6\u13d7": 3771,
    "\u2581\u13a4\u13ed\u13e2\u13d4\u13c5\u13a9": 3772,
    "\u13d8\u13ef\u13cd\u13d3\u13c1": 3773,
    "\u2581\u13d5\u13aa\u13ea\u13b4\u13cd\u13d7": 3774,
    "\u2581\u13eb\u13d7\u13b6\u13af": 3775,
    "\u2581\u13d3\u13a6\u13db\u13c1\u13b5": 3776,
    "\u2581\u13c4\u13ea\u13b2\u13be": 3777,
    "\u2581\u13a2\u13e6\u13af\u13f3\u13d7\u13f1": 3778,
    "\u2581\u13a4\u13db\u13a6\u13cd\u13d5": 3779,
    "\u2581\u13d3\u13f1\u13be": 3780,
    "\u2581\u13ae\u13b5\u13a0": 3781,
    "\u2581\u13a0\u13d3\u13f2\u13c1\u13ae\u13cd\u13d7": 3782,
    "\u13f2\u13a6": 3783,
    "\u2581\u13a8\u13e5\u13cd\u13d5\u13b8\u13d7": 3784,
    "\u2581\u13a1\u13e5\u13c5\u13cf\u13d3\u13cd\u13d7": 3785,
    "\u2581\u13a2\u13ac\u13db\u13c1\u13d7": 3786,
    "\u2581\u13a3\u13a6\u13da\u13b5\u13ad": 3787,
    "\u2581\u13e5\u13da\u13f3\u13aa\u13d7": 3788,
    "\u2581\u13e7\u13c2\u13b6\u13b8\u13d7": 3789,
    "\u2581\u13a0\u13ab\u13e9\u13cc": 3790,
    "\u2581\u13a6\u13c2\u13a9\u13b8": 3791,
    "\u2581\u13a2\u13ef\u13e5\u13b8\u13c9\u13d7": 3792,
    "\u2581\u13a4\u13ac\u13a5\u13cd\u13a9": 3793,
    "\u2581\u13f0\u13d9\u13ad": 3794,
    "\u2581\u13a0\u13c2\u13aa\u13b2\u13ad": 3795,
    "\u2581\u13bf\u13db\u13a6": 3796,
    "\u2581\u13ac\u13ec\u13af\u13f3\u13c5\u13a9": 3797,
    "\u2581\u13e3\u13a6\u13e8\u13cd": 3798,
    "\u2581\u13e7\u13c2\u13c1\u13df\u13f4\u13cd\u13d7": 3799,
    "\u2581\u13a4\u13b4\u13f4\u13d2": 3800,
    "\u2581\u13b2\u13d3": 3801,
    "\u2581\u13a0\u13cd\u13d5\u13ef\u13d3": 3802,
    "\u2581\u13a2\u13f3\u13ea\u13ce\u13b8\u13af": 3803,
    "\u2581\u13cd\u13a9\u13cd\u13d3\u13e9\u13da\u13a6": 3804,
    "\u2581\u13a4\u13c2\u13aa\u13e9\u13db\u13d7\u13f1": 3805,
    "\u2581\u13af\u13b8\u13c9\u13d3": 3806,
    "\u2581\u13e3\u13d9\u13b3\u13c5\u13cd\u13d7": 3807,
    "\u2581\u13a4\u13cd\u13c6": 3808,
    "\u2581\u13a4\u13d5\u13b6\u13b0\u13d2": 3809,
    "\u2581\u13ad\u13d3\u13c5\u13be": 3810,
    "\u2581\u13d7\u13ab\u13aa\u13d7\u13cd\u13a9": 3811,
    "\u2581\u13a4\u13b6\u13d7\u13e2": 3812,
    "\u2581\u13c2\u13f4\u13c1\u13b8": 3813,
    "\u2581\u13c2\u13e3\u13db\u13bf\u13d5\u13ac\u13a2": 3814,
    "\u2581\u13d7\u13aa\u13e2\u13c5\u13af": 3815,
    "\u2581\u13d1\u13d3\u13b5\u13cd\u13aa\u13af": 3816,
    "\u2581\u13a2\u13a9\u13c1\u13b8": 3817,
    "\u2581\u13a0\u13cd\u13a9\u13d7\u13cd\u13a8\u13a2": 3818,
    "\u2581\u13a2\u13e3\u13da\u13b5\u13cd\u13a8\u13cd\u13d7": 3819,
    "\u2581\u13a2\u13e5\u13ef\u13a1\u13cd\u13d7": 3820,
    "\u2581\u13da\u13ef\u13ea\u13a8": 3821,
    "\u2581\u13cd\u13c8\u13cd\u13d4": 3822,
    "\u2581\u13d7\u13e3\u13a7\u13c5\u13a6": 3823,
    "\u2581\u13a2\u13e3\u13b5\u13ae\u13b5\u13a8\u13cd\u13d7": 3824,
    "\u2581\u13eb\u13e5\u13b7\u13e8\u13ad": 3825,
    "\u2581\u13a8\u13e5\u13c5\u13d2\u13af": 3826,
    "\u2581\u13e5\u13e3\u13db\u13a9\u13ad": 3827,
    "\u2581\u13c7\u13d7\u13c2\u13f1": 3828,
    "\u2581\u13d7\u13a9\u13b8\u13eb\u13cd\u13d3\u13c1\u13d7\u13f1": 3829,
    "\u2581\u13a1\u13e5\u13ef\u13c5\u13db": 3830,
    "\u2581\u13b6\u13bb": 3831,
    "\u2581\u13a0\u13e0\u13d7\u13f1": 3832,
    "\u2581\u13ce\u13d8": 3833,
    "\u2581\u13e7\u13b3\u13cd\u13a9": 3834,
    "\u2581\u13a4\u13be\u13db\u13c5\u13a9": 3835,
    "\u2581\u13a0\u13c2\u13a6\u13f2\u13df": 3836,
    "\u2581\u13e7\u13b7\u13eb\u13cd\u13d4\u13c1\u13d7": 3837,
    "\u2581\u13d7\u13e3\u13d3\u13b4\u13c5\u13db": 3838,
    "\u2581\u13cd\u13aa\u13c1": 3839,
    "\u2581\u13c8\u13b5\u13cf": 3840,
    "\u2581\u13a0\u13a9\u13b5\u13a8\u13c2": 3841,
    "\u2581\u13a0\u13c2\u13f4\u13a9": 3842,
    "\u2581\u13a4\u13be\u13d3\u13d9\u13b5\u13cd\u13d3\u13c1\u13b8\u13a9": 3843,
    "\u2581\u13a6\u13c3\u13d9\u13d7\u13f1": 3844,
    "\u2581\u13aa\u13af\u13a2\u13f4": 3845,
    "\u2581\u13a2\u13a6\u13b5\u13cd\u13d9\u13d7\u13f1": 3846,
    "\u2581\u13a2\u13e8\u13c3\u13ae\u13ae\u13b8": 3847,
    "\u2581\u13a4\u13c1\u13af": 3848,
    "\u2581\u13c2\u13e8\u13a6": 3849,
    "\u2581\u13aa\u13b0\u13cd": 3850,
    "\u2581\u13a2\u13a6\u13a6\u13d3": 3851,
    "\u13d4\u13b5": 3852,
    "\u2581\u13a4\u13d3\u13d9\u13b5\u13e3\u13db": 3853,
    "\u2581\u13a0\u13e8\u13cd\u13db": 3854,
    "\u2581\u13b9\u13a6": 3855,
    "\u2581\u13c4\u13e9\u13c1\u13b0": 3856,
    "\u2581\u13d3\u13be\u13d5\u13f2\u13b2\u13cd\u13ac": 3857,
    "\u2581\u13a4\u13a6\u13d4\u13d4\u13c5\u13af": 3858,
    "\u2581\u13a4\u13c3\u13af\u13f3\u13c5\u13af": 3859,
    "\u2581\u13a0\u13d3\u13c1\u13e3\u13cd\u13da\u13b6\u13a9\u13af": 3860,
    "\u2581\u13a0\u13cd\u13ab\u13d5\u13cd\u13d7\u13f1": 3861,
    "\u2581\u13a4\u13f0\u13e8": 3862,
    "\u2581\u13ef\u13c2\u13a6\u13d4\u13ae": 3863,
    "\u2581\u13e5\u13c1\u13a6": 3864,
    "\u2581\u13a2\u13cd\u13d5\u13be": 3865,
    "\u2581\u13a4\u13db\u13d2\u13af": 3866,
    "\u13a7\u13c1\u13b8": 3867,
    "\u2581\u13a0\u13f0\u13df": 3868,
    "\u2581\u13d7\u13d8\u13f2\u13af": 3869,
    "\u2581\u13c3\u13a9\u13ea\u13ce\u13b8": 3870,
    "\u2581\u13e7\u13d3\u13b4": 3871,
    "\u2581\u13a0\u13a6\u13d4\u13af\u13f3": 3872,
    "\u2581\u13a4\u13d3\u13f4\u13ce\u13a2": 3873,
    "\u2581\u13e5\u13d9\u13a6": 3874,
    "\u2581\u13ac\u13e9\u13db\u13d7": 3875,
    "\u2581\u13a4\u13ea\u13a7\u13c1\u13a2": 3876,
    "\u2581\u13a4\u13be\u13d5\u13d7": 3877,
    "\u2581\u13e5\u13aa\u13e9\u13d8\u13cd\u13ac": 3878,
    "\u2581\u13a4\u13be\u13c4\u13aa\u13a2\u13cd\u13d7": 3879,
    "\u2581\u13a9\u13b3\u13af\u13f3": 3880,
    "\u2581\u13d3\u13a7\u13c5": 3881,
    "\u13a1\u13b8": 3882,
    "\u2581\u13a4\u13c1\u13c9\u13e8\u13af": 3883,
    "\u2581\u13aa\u13ea\u13b4": 3884,
    "\u2581\u13a4\u13c2\u13be\u13eb": 3885,
    "\u2581\u13c7\u13b5\u13a9": 3886,
    "\u2581\u13d3\u13e8\u13c1\u13b5": 3887,
    "\u2581\u13a4\u13c3\u13af\u13f3\u13c5\u13a9": 3888,
    "\u2581\u13d7\u13a6\u13e5": 3889,
    "\u2581\u13a4\u13aa\u13e9\u13db\u13d7\u13f1": 3890,
    "\u2581\u13e5\u13ef\u13b5\u13a1\u13b5\u13e4": 3891,
    "\u2581\u13a8\u13b5\u13cd\u13a9": 3892,
    "\u13c1\u13c9\u13e5": 3893,
    "\u2581\u13a4\u13be\u13db\u13aa\u13d7\u13f1": 3894,
    "\u2581\u13a4\u13ea\u13cd\u13a9\u13b8\u13a2": 3895,
    "\u2581\u13eb\u13e5\u13a6\u13db\u13a2": 3896,
    "\u2581\u13a1\u13d3\u13cd\u13d7": 3897,
    "\u2581\u13e7\u13d3\u13b5\u13a2": 3898,
    "\u2581\u13c2\u13da\u13e9\u13c1\u13b4\u13a2": 3899,
    "\u2581\u13a4\u13cd\u13c6\u13c2\u13aa\u13db": 3900,
    "\u2581\u13a4\u13a9\u13d2\u13a9": 3901,
    "\u2581\u13a0\u13c2\u13c3\u13ae\u13ad": 3902,
    "\u2581\u13a2\u13aa": 3903,
    "\u2581\u13bb\u13b3": 3904,
    "\u13cd\u13a6\u13ce\u13d7": 3905,
    "\u2581\u13a2\u13a6\u13b5\u13a2": 3906,
    "\u2581\u13be\u13ef\u13db\u13a5\u13a9": 3907,
    "\u2581\u13a4\u13d3\u13d9\u13b5\u13cd\u13d4\u13c1\u13a2": 3908,
    "\u2581\u13d7\u13be\u13d3\u13aa\u13be\u13d7\u13cd\u13ac\u13a2": 3909,
    "\u2581\u13a0\u13be\u13d3\u13aa\u13be\u13d7\u13cd\u13ac\u13a2": 3910,
    "\u2581\u13a6\u13d3\u13d9\u13b5\u13cd\u13d7\u13cd\u13ac\u13a2": 3911,
    "\u2581\u13a4\u13be\u13c2\u13a9\u13d2\u13a9": 3912,
    "\u2581\u13a2\u13f3\u13d2\u13af": 3913,
    "\u2581\u13a0\u13a6\u13cd\u13a9": 3914,
    "\u13c5\u13ec\u13d7\u13f1": 3915,
    "\u2581\u13e5\u13f0\u13b8\u13a2": 3916,
    "\u2581\u13a3\u13b5\u13e9\u13f2": 3917,
    "\u13a6\u13b8": 3918,
    "\u13d3\u13db\u13cd\u13a9": 3919,
    "\u2581\u13a4\u13be\u13d3\u13c5\u13d6\u13b4": 3920,
    "\u2581\u13a4\u13be\u13c2\u13a9\u13ce\u13a2": 3921,
    "\u2581\u13a4\u13e9\u13d4\u13c5\u13a9": 3922,
    "\u2581\u13a4\u13c2\u13e3\u13d6\u13cd\u13d7": 3923,
    "\u2581\u13a0\u13c6\u13e3": 3924,
    "\u2581\u13a4\u13c7\u13d3\u13b5\u13c9": 3925,
    "\u2581\u13a4\u13a9\u13ce\u13a2": 3926,
    "\u13d3\u13c2\u13b8\u13a9": 3927,
    "\u2581\u13a4\u13ec\u13e2\u13c5": 3928,
    "\u2581\u13a4\u13b5\u13cd\u13c6\u13db": 3929,
    "\u2581\u13da\u13e9\u13c2\u13a6\u13b8\u13a2": 3930,
    "\u2581\u13a4\u13e6\u13f1\u13b4\u13a2": 3931,
    "\u2581\u13a6\u13ef\u13b8": 3932,
    "\u2581\u13a4\u13be\u13d3\u13c5\u13d6\u13b8": 3933,
    "\u2581\u13a0\u13a2\u13d2\u13a9": 3934,
    "\u13f0\u13db": 3935,
    "\u2581\u13e5\u13c4\u13cd\u13d5": 3936,
    "\u2581\u13e3\u13d7\u13ad": 3937,
    "\u2581\u13a4\u13cd\u13aa\u13d2": 3938,
    "\u2581\u13a4\u13d7\u13db\u13ae\u13a2": 3939,
    "\u2581\u13a2\u13e3\u13d3\u13c5\u13d6\u13cd\u13ac": 3940,
    "\u2581\u13a4\u13f2\u13a2\u13f4": 3941,
    "\u2581\u13ed\u13c2\u13b7\u13e8\u13a9": 3942,
    "\u13ef\u13a5\u13a2": 3943,
    "\u2581\u13a0\u13d3\u13af\u13af": 3944,
    "\u2581\u13eb\u13a6\u13b7\u13ac": 3945,
    "\u2581\u13dd\u13a8": 3946,
    "\u2581\u13a4\u13c1\u13cd\u13d4": 3947,
    "\u13d7\u13c2\u13cd\u13aa\u13c2\u13af": 3948,
    "\u2581\u13a0\u13a9\u13c1\u13e8\u13a2": 3949,
    "\u2581\u13a2\u13d7\u13ac\u13c1": 3950,
    "\u13c3\u13af\u13ce\u13b4": 3951,
    "\u2581\u13e7\u13c1\u13a6": 3952,
    "\u2581\u13ab\u13a6": 3953,
    "\u13da\u13a2\u13cd\u13d3\u13c1\u13b4": 3954,
    "\u2581\u13eb\u13da\u13ef\u13c5\u13ae\u13a2": 3955,
    "\u2581\u13ea\u13e3": 3956,
    "\u2581\u13a2\u13e8\u13d7\u13cd\u13ac": 3957,
    "\u2581\u13cd\u13a9\u13cd\u13d5\u13b8": 3958,
    "\u2581\u13a4\u13c4\u13aa\u13e4\u13a2": 3959,
    "\u2581\u13d7\u13d0\u13f4": 3960,
    "\u2581\u13c2\u13d5\u13ac\u13c1\u13b2": 3961,
    "\u2581\u13a2\u13d4": 3962,
    "\u13a6\u13db\u13a6": 3963,
    "\u2581\u13a4\u13c5\u13ce\u13a2": 3964,
    "\u2581\u13a0\u13c1\u13ae\u13cd\u13d7": 3965,
    "\u2581\u13af\u13a6\u13d4\u13b2": 3966,
    "\u13d4\u13c1\u13cd\u13d7": 3967,
    "\u2581\u13a4\u13aa\u13b5\u13f0\u13a5": 3968,
    "\u13de\u13cd\u13d7": 3969,
    "\u2581\u13a4\u13ec\u13e8": 3970,
    "\u2581\u13ad\u13d7": 3971,
    "\u2581\u13e7\u13c1\u13d7\u13f1": 3972,
    "\u2581\u13a4\u13b7\u13e4\u13b4\u13a2": 3973,
    "\u2581\u13a4\u13e9\u13d4\u13c1": 3974,
    "\u2581\u13a4\u13c1\u13cd\u13a9\u13b8": 3975,
    "\u2581\u13d7\u13ac\u13e9\u13be": 3976,
    "\u2581\u13a1\u13be\u13a2": 3977,
    "\u2581\u13a4\u13ec\u13c2\u13ce": 3978,
    "\u2581\u13a4\u13be\u13db\u13c1": 3979,
    "\u2581\u13e7\u13c1\u13e4\u13b4": 3980,
    "\u13db\u13c1\u13d7\u13f1": 3981,
    "\u2581\u13da\u13d9\u13cd\u13db": 3982,
    "\u2581\u13c4\u13e9\u13c1\u13b8\u13a9": 3983,
    "\u13cd\u13d7\u13cd\u13a8\u13a2": 3984,
    "\u13b3\u13c5\u13a9": 3985,
    "\u13d3\u13c1\u13af": 3986,
    "\u13a8\u13ce\u13a2": 3987,
    "\u2581\u13a0\u13be\u13b5\u13ae\u13b5\u13a8": 3988,
    "\u13df\u13cc\u13c2": 3989,
    "\u2581\u13a4\u13aa\u13d7": 3990,
    "\u13b5\u13cd\u13d3\u13f4\u13b2\u13cd\u13a6": 3991,
    "\u2581\u13a4\u13e4\u13b8": 3992,
    "\u2581\u13d9\u13d3\u13a8": 3993,
    "\u2581\u13c2\u13e5\u13ea\u13ce\u13b8": 3994,
    "\u13cf\u13d0\u13d7": 3995,
    "\u13c2\u13d7": 3996,
    "\u13ab\u13e9": 3997,
    "\u13c5\u13a6": 3998,
    "\u2581\u13f1\u13d3\u13a9": 3999,
    "\u2581\u13d7\u13ac\u13a9": 4000,
    "\u2581\u13a4\u13c2\u13aa\u13b2\u13a9": 4001,
    "\u2581\u13d3\u13ac\u13a9": 4002,
    "\u2581\u13d7\u13a9\u13a6\u13f4\u13b5\u13a8\u13a2": 4003,
    "\u13b5\u13cd\u13aa\u13b8\u13d3\u13c1\u13d7\u13f1": 4004,
    "\u2581\u13c2\u13da\u13a9\u13e8\u13c2\u13d2\u13a2": 4005,
    "\u13c4\u13aa\u13eb\u13cf": 4006,
    "\u13d6\u13b5": 4007,
    "\u2581\u13e7\u13be\u13e6": 4008,
    "\u2581\u13a0\u13e6\u13f4\u13a2": 4009,
    "\u13e2\u13be\u13c1\u13d7": 4010,
    "\u13b2\u13cd\u13aa\u13a2": 4011,
    "\u2581\u13a4\u13cd\u13a6\u13c5\u13e8\u13a2": 4012,
    "\u2581\u13a4\u13c1\u13c5\u13cd\u13d7": 4013,
    "\u2581\u13c3\u13f3": 4014,
    "\u2581\u13aa\u13a6": 4015,
    "\u2581\u13d5\u13ac\u13e9\u13c2": 4016,
    "\u2581\u13e3\u13aa": 4017,
    "\u13e8\u13be": 4018,
    "\u2581\u13d5\u13e3\u13d9\u13a5\u13a2": 4019,
    "\u13c5\u13d7\u13cd\u13a8\u13cd\u13d7": 4020,
    "\u13ea\u13ce\u13d7": 4021,
    "\u13d9\u13b2\u13a2": 4022,
    "\u2581\u13a4\u13d3\u13c5\u13d9\u13a9": 4023,
    "\u2581\u13d7\u13cd\u13c6": 4024,
    "\u13d3\u13c1\u13ae\u13cd\u13d7": 4025,
    "\u13c7\u13b5": 4026,
    "\u13cf\u13e9": 4027,
    "\u13cf\u13b3\u13db\u13d7": 4028,
    "\u2581\u13a4\u13cd\u13d3\u13f1\u13d5": 4029,
    "\u13a9\u13cd\u13ac": 4030,
    "\u2581\u13a4\u13b5\u13cd\u13c6\u13d5": 4031,
    "\u13df\u13ef": 4032,
    "\u2581\u13c3\u13a9": 4033,
    "\u13b3\u13da": 4034,
    "\u2581\u13a4\u13a7\u13b5\u13b8": 4035,
    "\u13f3\u13cd\u13d7": 4036,
    "\u13cc\u13b3\u13d3\u13c1": 4037,
    "\u13ac\u13c2\u13a8": 4038,
    "\u2581\u13a4\u13d9\u13af\u13f3\u13ad": 4039,
    "\u2581\u13d7\u13a8\u13a6": 4040,
    "\u2581\u13a0\u13c2\u13c1\u13b8": 4041,
    "\u2581\u13c2\u13ac\u13c1\u13b8": 4042,
    "\u13a6\u13d4\u13b2": 4043,
    "\u2581\u13e6\u13e5": 4044,
    "\u2581\u13a0\u13c3\u13b5": 4045,
    "\u2581\u13a4\u13d3\u13c5\u13d2": 4046,
    "\u2581\u13c4\u13ea\u13ce\u13b8\u13a2": 4047,
    "\u2581\u13a0\u13c9\u13e2": 4048,
    "\u13c5\u13a6\u13b8\u13db": 4049,
    "\u13aa\u13c5": 4050,
    "\u13c2\u13cc\u13c2": 4051,
    "\u2581\u13a4\u13cd\u13c6\u13b8": 4052,
    "\u13aa\u13b5\u13c2\u13d7": 4053,
    "\u13a6\u13d9\u13a5\u13ce": 4054,
    "\u13cf\u13d7": 4055,
    "\u2581\u13a4\u13a7\u13b5": 4056,
    "\u2581\u13ac\u13d2": 4057,
    "\u2581\u13c3\u13d2": 4058,
    "\u2581\u13a4\u13c1\u13c5\u13ce\u13c3": 4059,
    "\u2581\u13da\u13b8": 4060,
    "\u13e7\u13c2\u13f2\u13af\u13cd\u13d7\u13f1": 4061,
    "\u13d5\u13a6": 4062,
    "\u2581\u13a4\u13c3\u13f4\u13b5": 4063,
    "\u2581\u13f3\u13aa": 4064,
    "\u2581\u13a0\u13f0\u13b5\u13d2": 4065,
    "\u13cd\u13a6\u13a2\u13ae\u13cd\u13d7": 4066,
    "\u2581\u13a4\u13c1\u13e4\u13a2": 4067,
    "\u13af\u13b2\u13a2": 4068,
    "\u2581\u13a4\u13d9\u13af": 4069,
    "\u13f2\u13cf": 4070,
    "\u2581\u13a4\u13d9\u13f3": 4071,
    "\u13a4\u13e9\u13c2\u13a6\u13b8": 4072,
    "\u13c1\u13a2\u13cd\u13d3\u13c1\u13d7": 4073,
    "\u2581\u13a4\u13c1\u13e4\u13b4\u13a2": 4074,
    "\u13c2\u13d9\u13b8": 4075,
    "\u13e3\u13d7": 4076,
    "\u2581\u13e6\u13cf": 4077,
    "\u13d7\u13ef": 4078,
    "\u2581\u13a0\u13c2\u13b8\u13c9\u13d7\u13cd\u13a8": 4079,
    "\u2581\u13a4\u13c5\u13c1": 4080,
    "\u2581\u13d3\u13d4\u13b4\u13d2\u13a2": 4081,
    "\u2581\u13be\u13c2\u13a5\u13a9": 4082,
    "\u2581\u13e6\u13d2": 4083,
    "\u2581\u13d9\u13d3\u13e3": 4084,
    "\u13e1\u13d7\u13cd\u13a9": 4085,
    "\u2581\u13e4\u13b3\u13d7": 4086,
    "\u2581\u13a1\u13cd\u13d7": 4087,
    "\u2581\u13f2\u13a6": 4088,
    "\u2581\u13a6\u13f2\u13a6": 4089,
    "\u2581\u13a0\u13b9\u13c2": 4090,
    "\u13b5\u13cd\u13d3\u13f4\u13d7": 4091,
    "\u2581\u13da\u13c3": 4092,
    "\u2581\u13a4\u13b3": 4093,
    "\u2581\u13a0\u13ab\u13f4\u13d7": 4094,
    "\u2581\u13a4\u13c2\u13cf\u13d7": 4095,
    "\u13db\u13c3\u13af": 4096,
    "\u13a6\u13da": 4097,
    "\u2581\u13da\u13c1\u13e4\u13b4\u13c3": 4098,
    "\u2581\u13e5\u13d5\u13e3": 4099,
    "\u13e4\u13ad": 4100,
    "\u13b3\u13db": 4101,
    "\u2581\u13a0\u13a9\u13cd\u13a6\u13c5\u13e8": 4102,
    "\u2581\u13d3\u13a6\u13e5": 4103,
    "\u2581\u13a2\u13ac\u13f1\u13f1\u13c9": 4104,
    "\u13a9\u13d2": 4105,
    "\u2581\u13f1\u13e5\u13f0\u13b8": 4106,
    "\u13c1\u13c5": 4107,
    "\u13d8\u13cd\u13d7\u13cd\u13a9": 4108,
    "\u13cd\u13d3\u13e9\u13d5\u13a9": 4109,
    "\u2581\u13a0\u13e5\u13c1\u13b8": 4110,
    "\u13a7\u13af\u13ef\u13cd\u13d7": 4111,
    "\u2581\u13a4\u13c2\u13f4\u13b8": 4112,
    "\u13cd\u13d3\u13c1": 4113,
    "\u2581\u13a6\u13be\u13c4\u13aa": 4114,
    "\u13e5\u13e7\u13e3": 4115,
    "\u2581\u13e5\u13f3\u13aa": 4116,
    "\u13e2\u13c5\u13af": 4117,
    "\u13d7\u13cd\u13d4\u13c1": 4118,
    "\u2581\u13a8\u13a2": 4119,
    "\u13ac\u13c5": 4120,
    "\u13d7\u13d4\u13cd\u13ac": 4121,
    "\u2581\u13e9\u13f4": 4122,
    "\u13d2\u13d7": 4123,
    "\u2581\u13d7\u13a7": 4124,
    "\u13c4\u13b5": 4125,
    "\u13f2\u13ad": 4126,
    "\u2581\u13c2\u13db": 4127,
    "\u13c2\u13f4": 4128,
    "\u2581\u13a0\u13be\u13d7\u13cd\u13a8": 4129,
    "\u13cd\u13c6\u13b5": 4130,
    "\u2581\u13aa\u13db": 4131,
    "\u2581\u13a4\u13c2\u13c4\u13aa\u13e8": 4132,
    "\u2581\u13e5\u13a6\u13d4": 4133,
    "\u13ea\u13ce\u13b4\u13a2": 4134,
    "\u2581\u13a4\u13e3\u13c5": 4135,
    "\u13b5\u13a2": 4136,
    "\u13d8\u13be\u13eb\u13db\u13b2\u13a9": 4137,
    "\u2581\u13a2\u13f3\u13c2": 4138,
    "...\u201d": 4139,
    "\u13b6\u13d3": 4140,
    "\u13eb\u13ce\u13b4\u13a2": 4141,
    "\u13c2\u13c6\u13d8\u13af": 4142,
    "\u13d3\u13f1": 4143,
    "\u13cd\u13a6\u13f0\u13ac\u13cd\u13d3": 4144,
    "\u2581\u13a4\u13ea\u13f0": 4145,
    "\u2581\u13a0\u13e9\u13db": 4146,
    "\u13cd\u13d5\u13b5\u13cd\u13ac": 4147,
    "\u13c1\u13df\u13f4": 4148,
    "\u2581\u13c2\u13a6\u13a5\u13a2": 4149,
    "\u13f2\u13cd\u13d7\u13cd\u13ac": 4150,
    "\u13b8\u13c9\u13d7\u13cd\u13a9": 4151,
    "\u2581\u13a4\u13b5\u13cd\u13c6\u13b8\u13d7\u13c3": 4152,
    "\u2581\u13d5\u13a0": 4153,
    "\u2581\u13da\u13f3": 4154,
    "\u2581\u13be\u13af\u13f3\u13a2": 4155,
    "\u2581\u13d5\u13a8\u13e5": 4156,
    "\u13e1\u13d7\u13cd\u13ac\u13a2": 4157,
    "\u13a6\u13b3": 4158,
    "\u2581\u13da\u13f2\u13ce": 4159,
    "\u2581\u13f1\u13a8\u13e3": 4160,
    "\u13cd\u13d7\u13cd\u13ac\u13a2": 4161,
    "\u13d3\u13ce\u13aa\u13a9\u13cd": 4162,
    "\u13c2\u13d9\u13af": 4163,
    "\u13d7\u13cd\u13d7\u13cd\u13a9": 4164,
    "\u2581\u13a0\u13a8": 4165,
    "\u2581\u13a4\u13b5\u13cd\u13c6": 4166,
    "\u13c5\u13aa\u13a2\u13cd\u13d7": 4167,
    "al": 4168,
    "\u2581\u13ef\u13d3\u13c5\u13d6": 4169,
    "\u2581\u13a0\u13b5\u13f0\u13a2\u13b5": 4170,
    "\u13f3\u13b3": 4171,
    "\u13e2\u13d7\u13f1": 4172,
    "\u13d1\u13f0\u13d2": 4173,
    "\u2581\u13a2\u13e8\u13f2\u13ea\u13b3": 4174,
    "\u2581\u13ed\u13e9": 4175,
    "\u13a1\u13b0\u13a2": 4176,
    "\u13f0\u13b8\u13ad": 4177,
    "\u2581\u13d5\u13ab": 4178,
    "\u2581\u13a6\u13ef": 4179,
    "\u13c2\u13a9\u13cd\u13ac": 4180,
    "\u2581\u13a9\u13ef": 4181,
    "\u13f0\u13b8\u13af": 4182,
    "\u13e5\u13cd\u13a6\u13ef": 4183,
    "\u2581\u13d3\u13f3\u13c2": 4184,
    "\u13f4\u13cd\u13d7": 4185,
    "\u13b5\u13f3": 4186,
    "\u2581\u13a0\u13cd\u13c6\u13c2\u13aa\u13d9\u13d7": 4187,
    "\u13cd\u13a9\u13b8": 4188,
    "\u13cd\u13d3\u13e9\u13db\u13d2\u13a9": 4189,
    "\u13d3\u13d1\u13f0\u13cd\u13d7": 4190,
    "\u13db\u13c5\u13a2\u13cd\u13d3": 4191,
    "\u2581\u13a2\u13f3\u13cd\u13a9\u13c2\u13c3": 4192,
    "\u2581\u13e5\u13c2\u13ac": 4193,
    "\u2581\u13c4\u13cd\u13db\u13a9": 4194,
    "\u2581\u13d4\u13ef": 4195,
    "\u13cd\u13d3\u13e9\u13d7\u13d2": 4196,
    "\u2581\u13da\u13ed": 4197,
    "\u13a4\u13cd\u13d3\u13a6\u13f4\u13af\u13d3": 4198,
    "\u2581\u13da\u13c1": 4199,
    "\u2581\u13a2\u13d7\u13a6\u13d8": 4200,
    "\u13e5\u13c1\u13b8": 4201,
    "\u13d3\u13b5\u13d3\u13cd\u13d7": 4202,
    "\u13f2\u13b5": 4203,
    "\u13c5\u13db": 4204,
    "\u13f2\u13d2\u13a9": 4205,
    "\u2581\u13a8\u13cd\u13d7\u13d7": 4206,
    "\u13a6\u13c1\u13b6\u13d7": 4207,
    "\u13b7\u13af\u13cd\u13d7": 4208,
    "\u2581\u13a4\u13b5\u13f0": 4209,
    "\u13b3\u13d3": 4210,
    "\u2581\u13a5\u13a9\u13b8\u13c9": 4211,
    "\u13cd\u13a6\u13e8\u13af": 4212,
    "\u13d3\u13d9\u13b5\u13cd\u13d7\u13cd\u13ac": 4213,
    "\u13d8\u13c3\u13af\u13cd\u13d7\u13f1": 4214,
    "\u13a6\u13d8\u13d3": 4215,
    "\u13b3\u13c2": 4216,
    "\u13c2\u13aa\u13b2": 4217,
    "\u2581\u13ac\u13f0\u13b8": 4218,
    "\u2581\u13a2\u13cd\u13db": 4219,
    "\u2581\u13a0\u13e2": 4220,
    "\u2581\u13c5\u13d3\u13ac\u13e9": 4221,
    "\u13a7\u13c1": 4222,
    "\u13d3\u13c2\u13b8\u13e4\u13a2": 4223,
    "\u2581\u13a4\u13c2\u13cd\u13c6\u13c2\u13aa\u13ce": 4224,
    "\u2581\u13a4\u13b7": 4225,
    "\u2581\u13d7\u13e3\u13c1\u13b6": 4226,
    "\u13d3\u13a9\u13cd\u13a8": 4227,
    "\u2581\u13d7\u13cd\u13da": 4228,
    "\u2581\u13f3\u13ec\u13af\u13f3": 4229,
    "\u13d9\u13ae": 4230,
    "\u13e9\u13d5\u13ac": 4231,
    "\u13b5\u13cd\u13d3\u13cf": 4232,
    "\u13bc": 4233,
    "\u13aa\u13b5\u13f0\u13a5\u13af": 4234,
    "\u13a6\u13c5\u13a6": 4235,
    "\u2581\u13a4\u13cd\u13a6": 4236,
    "\u13b6\u13af\u13cd\u13d7": 4237,
    "\u2581\u13e3\u13a6": 4238,
    "\u2581\u13c4\u13c2\u13ea\u13ce": 4239,
    "\u2581\u13e7\u13c1\u13e8": 4240,
    "\u13cd\u13d5\u13b8\u13d7\u13f1": 4241,
    "\u13bf\u13a5\u13a2": 4242,
    "\u13ea\u13ce\u13b8\u13a9": 4243,
    "\u2581\u13a4\u13b8\u13c9\u13d7": 4244,
    "\u2581\u13a6\u13df": 4245,
    "\u2581\u13a7\u13c3\u13ae": 4246,
    "\u13ea\u13b6\u13d7": 4247,
    "\u13e2\u13db": 4248,
    "\u2581\u13a0\u13c2\u13a6": 4249,
    "\u13d3\u13ec\u13cd\u13d7": 4250,
    "\u2581\u13a4\u13c1\u13b7\u13ac": 4251,
    "\u2581\u13e7\u13b3\u13d1\u13b6": 4252,
    "\u13e6\u13c1": 4253,
    "\u13c1\u13b2\u13a9": 4254,
    "\u2581\u13d9\u13e7": 4255,
    "\u13af\u13cd\u13d4\u13c2": 4256,
    "\u13c9\u13c2": 4257,
    "\u2581\u13d5\u13a6\u13c4\u13aa\u13eb\u13cd": 4258,
    "\u2581\u13a2\u13a9\u13f0\u13b8": 4259,
    "\u2581\u13ac\u13e9\u13be\u13d5": 4260,
    "\u13a2\u13a6\u13b8\u13c9\u13d7": 4261,
    "\u13cd\u13a6\u13c3\u13b5": 4262,
    "\u2581\u13d5\u13a6\u13c4\u13aa\u13ac": 4263,
    "\u2581\u13e7\u13c1": 4264,
    "\u2581\u13a4\u13c2\u13af": 4265,
    "\u2581\u13d5\u13a6\u13b3\u13c5\u13db": 4266,
    "\u2581\u13a4\u13cd\u13c6\u13c2\u13aa\u13ce": 4267,
    "\u13a6\u13b8\u13b3\u13d7": 4268,
    "\u2581\u13a0\u13d0\u13f4": 4269,
    "\u2581\u13a3\u13a6\u13db\u13a6\u13c5": 4270,
    "\u2581\u13da\u13f2": 4271,
    "\u13d7\u13a6\u13db\u13af": 4272,
    "\u2581\u13a0\u13d3\u13ea\u13b5\u13a9\u13cd\u13ac": 4273,
    "\u13eb\u13b5\u13bb": 4274,
    "\u13c4\u13d3\u13b4": 4275,
    "\u2581\u13a0\u13a9\u13c7\u13d3\u13b8": 4276,
    "\u2581\u13c2\u13a6\u13b5\u13cd\u13d7\u13cd\u13aa": 4277,
    "\u2581\u13d5\u13a6\u13cd\u13a9\u13b8": 4278,
    "\u2581\u13a2\u13e3\u13d3\u13d9\u13b5\u13cd\u13d7\u13cd\u13ac": 4279,
    "\u2581\u13a4\u13b5\u13f0\u13d4\u13c1": 4280,
    "\u2581\u13f1\u13a8\u13e5": 4281,
    "\u2581\u13d9\u13e7\u13be\u13d3\u13c5\u13db": 4282,
    "\u2581\u13f1\u13e5\u13a6\u13d4\u13ae": 4283,
    "\u2581\u13c4\u13c2\u13ea\u13ce\u13b4": 4284,
    "\u2581\u13a2\u13e3\u13b5\u13ae\u13b5\u13ac": 4285,
    "\u2581\u13a4\u13be\u13c2\u13a9\u13ce": 4286,
    "\u2581\u13da\u13d3\u13d8\u13be\u13a5": 4287,
    "\u2581\u13a4\u13b6\u13a8\u13d2": 4288,
    "\u2581\u13f1\u13c4\u13cd\u13d5": 4289,
    "\u2581\u13a4\u13ec\u13af\u13f3\u13d2": 4290,
    "\u2581\u13ef\u13db\u13c5": 4291,
    "\u2581\u13a4\u13c4\u13e9\u13a5": 4292,
    "\u13b0\u13e9": 4293,
    "\u2581\u13d5\u13a6\u13ec\u13c1\u13d7\u13cd\u13ac": 4294,
    "\u2581\u13c8\u13ac": 4295,
    "\u2581\u13c4\u13db\u13c1": 4296,
    "\u2581\u13be\u13a9\u13ea\u13ce\u13b8": 4297,
    "\u13aa\u13b2\u13cd\u13d9\u13d7": 4298,
    "\u13a3\u13cf": 4299,
    "\u2581\u13ed\u13ef\u13c5\u13b2": 4300,
    "\u2581\u13a0\u13a9\u13e9\u13db\u13b2": 4301,
    "\u2581\u13c4\u13c5\u13c1\u13b8": 4302,
    "\u13b5\u13d9\u13af": 4303,
    "\u2581\u13a4\u13b5\u13e6\u13db": 4304,
    "\u2581\u13a5\u13a9\u13d9": 4305,
    "\u13f0\u13b3\u13cd\u13d7": 4306,
    "\u2581\u13a2\u13ab\u13e9": 4307,
    "\u2581\u13a0\u13c2\u13aa\u13e9\u13d8\u13cd\u13ac": 4308,
    "\u13ec\u13d7\u13a8": 4309,
    "\u13a4\u13b7\u13e8": 4310,
    "\u2581\u13eb\u13d7\u13a6": 4311,
    "\u2581\u13c7\u13d3\u13c1\u13b3\u13bb": 4312,
    "\u13b2\u13ce": 4313,
    "\u2581\u13a0\u13d3\u13a8\u13d7": 4314,
    "\u2581\u13e7\u13c2\u13a7\u13bf\u13e9\u13db\u13cd\u13d7": 4315,
    "\u13aa\u13b5\u13f0": 4316,
    "\u2581\u13a0\u13cd\u13ab\u13d5\u13cd\u13d7": 4317,
    "\u2581\u13c2\u13d5\u13a6\u13ea\u13ce\u13b2": 4318,
    "\u2581\u13a4\u13ec\u13af\u13f3\u13c5": 4319,
    "\u2581\u13d7\u13ab\u13cd\u13d9\u13cd\u13d7": 4320,
    "\u13d2\u13c6\u13b6\u13cd\u13d7": 4321,
    "\u2581\u13d7\u13a8\u13ab\u13aa\u13d3\u13c1\u13d7": 4322,
    "\u2581\u13a4\u13ea\u13d3\u13cd\u13d7": 4323,
    "\u13f2\u13b1\u13af\u13ce\u13b8\u13af": 4324,
    "\u2581\u13e4\u13c5\u13cd\u13d7": 4325,
    "\u2581\u13da\u13c4\u13aa\u13eb\u13d2": 4326,
    "\u2581\u13a0\u13e5\u13c1\u13d7": 4327,
    "\u2581\u13a4\u13a7": 4328,
    "\u2581\u13ed\u13b7\u13e4\u13b4": 4329,
    "\u2581\u13a4\u13be\u13db\u13aa\u13d7": 4330,
    "\u2581\u13a0\u13c7\u13d3\u13cd\u13d7": 4331,
    "\u2581\u13a0\u13c2\u13be\u13f0\u13cd\u13a9": 4332,
    "\u2581\u13a0\u13c2\u13e5\u13ca\u13cf": 4333,
    "\u2581\u13a2\u13a8\u13ac\u13c1\u13b8\u13af": 4334,
    "\u2581\u13a2\u13b5\u13a1\u13cc": 4335,
    "\u2581\u13a4\u13cd\u13d4\u13f2\u13d2": 4336,
    "\u2581\u13a4\u13d6\u13b8\u13b3\u13db": 4337,
    "\u2581\u13a5\u13c6\u13b8\u13a2\u13db": 4338,
    "\u2581\u13ab\u13eb\u13cd\u13ab\u13eb": 4339,
    "\u2581\u13ac\u13ec\u13af\u13f3\u13b2\u13cd\u13a9": 4340,
    "\u2581\u13b0\u13e2\u13d4\u13c5\u13ad": 4341,
    "\u2581\u13b4\u13a3\u13d7\u13cf\u13ef": 4342,
    "\u2581\u13bb\u13da\u13cf\u13b3": 4343,
    "\u2581\u13c2\u13e6\u13b5\u13ac\u13be": 4344,
    "\u2581\u13c7\u13e3\u13b5\u13b5": 4345,
    "\u2581\u13cd\u13aa\u13c2\u13d7\u13e2": 4346,
    "\u2581\u13d3\u13c7\u13aa\u13d4\u13c5": 4347,
    "\u2581\u13d7\u13be\u13d9\u13b4\u13c6\u13cd\u13a9": 4348,
    "\u2581\u13d7\u13d3\u13b4\u13c5\u13d7\u13cd\u13a9": 4349,
    "\u2581\u13e5\u13c8\u13a3\u13c2": 4350,
    "\u2581\u13e7\u13c2\u13e6\u13ef\u13cd\u13d7": 4351,
    "\u2581\u13d3\u13d7\u13b6\u13c2": 4352,
    "\u2581\u13d7\u13ac\u13e9\u13a9\u13e8\u13d7": 4353,
    "\u2581\u13ed\u13d5\u13b5\u13e4": 4354,
    "\u2581\u13a4\u13c2\u13b5\u13c5\u13e8\u13af": 4355,
    "\u2581\u13a2\u13ef\u13db\u13c1\u13b5\u13d3\u13cd\u13d7": 4356,
    "\u2581\u13d7\u13e5\u13a8\u13eb": 4357,
    "\u2581\u13e7\u13be\u13d7\u13a9\u13d3": 4358,
    "\u2581\u13e6\u13cd\u13d3\u13d3\u13c5\u13df": 4359,
    "\u2581\u13e5\u13c2\u13e8\u13ea\u13ce\u13b8\u13a9": 4360,
    "\u2581\u13a4\u13ea\u13ef\u13b8\u13e4\u13a2": 4361,
    "\u2581\u13a0\u13b5\u13cf\u13be\u13af\u13cd\u13d9\u13d7": 4362,
    "\u2581\u13a0\u13c2\u13aa\u13d7\u13f3": 4363,
    "\u2581\u13a0\u13c6\u13d7\u13d4\u13cd\u13d7": 4364,
    "\u2581\u13a0\u13be\u13b5\u13d6\u13b8\u13b2\u13cd\u13a9": 4365,
    "\u2581\u13a2\u13ac\u13c6\u13db\u13c1\u13d7": 4366,
    "\u2581\u13a4\u13b5\u13cd\u13db\u13e7\u13c1": 4367,
    "\u2581\u13a0\u13df\u13b6\u13a5": 4368,
    "\u2581\u13d7\u13a8\u13d8\u13c2\u13d3\u13cd\u13d7": 4369,
    "\u13eb\u13c2\u13d7\u13e2": 4370,
    "\u2581\u13a0\u13c2\u13b6\u13cd\u13a9": 4371,
    "\u2581\u13b9\u13ba\u13b5": 4372,
    "\u2581\u13e7\u13ac\u13e9\u13b3\u13c5\u13af": 4373,
    "\u2581\u13ed\u13d5\u13b5\u13e8": 4374,
    "\u2581\u13a4\u13e6\u13a0\u13ce\u13d7": 4375,
    "\u2581\u13aa\u13af\u13f3\u13b2\u13cd\u13a8\u13cd\u13d7": 4376,
    "\u2581\u13a4\u13b5\u13c3\u13af\u13f4\u13af": 4377,
    "\u2581\u13a4\u13a6\u13db\u13be\u13e8\u13af": 4378,
    "\u2581\u13e3\u13a6\u13d1\u13b2\u13a2": 4379,
    "\u2581\u13a0\u13aa\u13b2\u13cd\u13d4\u13c5\u13af": 4380,
    "\u2581\u13c6\u13cf\u13b9": 4381,
    "\u2581\u13a2\u13aa\u13c2\u13ef": 4382,
    "\u2581\u13a2\u13e5\u13c1\u13ab": 4383,
    "\u2581\u13d5\u13e5\u13c2\u13f4\u13ce\u13cd\u13d7": 4384,
    "\u2581\u13d3\u13f2\u13e3\u13db\u13c1\u13b5": 4385,
    "\u2581\u13a0\u13c1\u13b8\u13d7\u13cd\u13a8\u13a2": 4386,
    "\u2581\u13f1\u13e5\u13aa\u13b5\u13f0\u13a3": 4387,
    "\u2581\u13d6\u13b9": 4388,
    "\u2581\u13ac\u13f2\u13ce\u13ad": 4389,
    "\u2581\u13c5\u13d3\u13f3\u13be\u13d3\u13b4\u13c5\u13af": 4390,
    "\u2581\u13d7\u13a9\u13f2\u13b1\u13d2\u13af": 4391,
    "\u2581\u13e7\u13c3\u13da\u13af": 4392,
    "\u2581\u13be\u13c2\u13cd\u13a6\u13c5\u13be": 4393,
    "\u2581\u13d5\u13a6\u13c5\u13d9\u13ac": 4394,
    "\u2581\u13a6\u13d7\u13a8\u13c2": 4395,
    "\u13d9\u13b4\u13cb": 4396,
    "\u2581\u13be\u13c3\u13af\u13f3\u13b2\u13cd\u13ac\u13be": 4397,
    "\u2581\u13e7\u13c8\u13ef": 4398,
    "\u2581\u13e9\u13a9\u13b7\u13e3": 4399,
    "\u13a9\u13cf\u13d5\u13a9": 4400,
    "\u2581\u13ac\u13e9\u13d5\u13f1\u13db": 4401,
    "\u2581\u13a2\u13e5\u13c7\u13d3\u13b8": 4402,
    "\u2581\u13c4\u13be\u13db\u13c1\u13b5\u13d9\u13b8": 4403,
    "\u2581\u13a0\u13d9\u13b4\u13b0\u13d2\u13af": 4404,
    "\u2581\u13a4\u13a6\u13c3\u13ee": 4405,
    "\u2581\u13d3\u13d3\u13db\u13c2": 4406,
    "\u2581\u13f3\u13f2\u13b1\u13d2": 4407,
    "\u2581\u13d7\u13ac\u13e9\u13c2\u13f0\u13af": 4408,
    "\u2581\u13d7\u13c2\u13c3\u13a8\u13c2": 4409,
    "\u2581\u13a6\u13b6\u13e3\u13d7": 4410,
    "\u2581\u13a4\u13f4\u13b5\u13b4": 4411,
    "\u2581\u13a2\u13f3\u13be\u13d3\u13b3": 4412,
    "\u2581\u13d7\u13c2\u13d0\u13af": 4413,
    "\u2581\u13c1\u13c6\u13b8": 4414,
    "\u2581\u13a4\u13c6\u13db\u13a9": 4415,
    "\u2581\u13d8\u13a6\u13d9\u13b5": 4416,
    "\u2581\u13b7": 4417,
    "\u2581\u13eb\u13e5\u13f2\u13b5\u13a6": 4418,
    "\u2581\u13a2\u13ac\u13be\u13d5\u13c5": 4419,
    "\u2581\u13da\u13ea\u13a7\u13c5\u13a9": 4420,
    "\u2581\u13b6\u13e9\u13c2": 4421,
    "\u2581\u13a6\u13b5\u13c6\u13da": 4422,
    "\u2581\u13da\u13ed\u13e2\u13d4\u13c5\u13a9": 4423,
    "\u2581\u13a0\u13c6\u13df\u13c2\u13ac\u13c1\u13b8": 4424,
    "\u2581\u13a0\u13c2\u13b1\u13e3": 4425,
    "\u2581\u13e7\u13be\u13aa\u13c5\u13cd\u13d3\u13b5": 4426,
    "\u2581\u13a5\u13c3\u13e5": 4427,
    "\u13cc\u13b3\u13db\u13a6": 4428,
    "\u2581\u13e7\u13ec\u13e2\u13c5\u13af": 4429,
    "\u2581\u13d7\u13a6\u13be\u13cc\u13a2": 4430,
    "\u2581\u13e7\u13b5\u13ac\u13e9\u13df": 4431,
    "\u2581\u13a2\u13ef\u13d3\u13db\u13c1\u13af": 4432,
    "\u2581\u13d3\u13a9\u13ef\u13ea\u13a6": 4433,
    "\u2581\u13d0\u13c1\u13b3": 4434,
    "\u2581\u13d7\u13df\u13cd\u13d9\u13d7": 4435,
    "\u2581\u13ad\u13db\u13d3\u13cd\u13d3": 4436,
    "\u13d0\u13ad\u13db": 4437,
    "\u2581\u13a4\u13be\u13da\u13b5\u13cd\u13a9": 4438,
    "\u2581\u13a0\u13c2\u13c3\u13ae\u13cd\u13a8": 4439,
    "\u2581\u13d7\u13e3\u13b4\u13b2\u13a6": 4440,
    "\u2581\u13a2\u13ef\u13c6\u13b5\u13cd\u13d9\u13d7\u13f1": 4441,
    "\u2581\u13aa\u13a2\u13f3\u13b2\u13cd\u13a6": 4442,
    "\u2581\u13d3\u13a6\u13e5\u13c1\u13b5": 4443,
    "\u2581\u13c5\u13c1\u13b8\u13ad": 4444,
    "\u2581\u13d7\u13a9\u13f4\u13eb": 4445,
    "\u2581\u13a6\u13e5\u13ef\u13c1\u13b3\u13c5\u13af": 4446,
    "\u2581\u13e5\u13cd\u13a6\u13a2\u13b2": 4447,
    "\u2581\u13c5\u13d3\u13f3\u13c5\u13cf\u13db": 4448,
    "\u2581\u13b1\u13b7\u13e3": 4449,
    "\u2581\u13d5\u13a6\u13f0\u13cc\u13db": 4450,
    "\u2581\u13a4\u13be\u13d9\u13b4\u13b0\u13af\u13cd\u13d9\u13d7": 4451,
    "\u2581\u13d3\u13d3\u13c2\u13b8\u13a8\u13cd\u13d7": 4452,
    "\u2581\u13a1\u13e5\u13f2\u13b5\u13b8\u13ad": 4453,
    "\u2581\u13a0\u13ac\u13d3\u13a8\u13c2": 4454,
    "\u2581\u13c4\u13d3\u13d1\u13f4\u13be": 4455,
    "\u2581\u13a4\u13c3\u13af\u13f3\u13af": 4456,
    "\u2581\u13c5\u13d3\u13cd\u13c6": 4457,
    "\u2581\u13a0\u13be\u13d3\u13ad\u13f2\u13af": 4458,
    "\u2581\u13d5\u13c5\u13d9\u13a5": 4459,
    "\u2581\u13d7\u13e5\u13b8\u13eb\u13cd\u13d3\u13c1\u13af": 4460,
    "\u2581\u13a4\u13c2\u13c6\u13d8\u13cd\u13d7": 4461,
    "\u2581\u13a0\u13c2\u13a1\u13bc\u13b5": 4462,
    "\u2581\u13a0\u13c6\u13d5\u13b6\u13b0\u13d2": 4463,
    "\u2581\u13a2\u13e5\u13a8\u13f4": 4464,
    "\u2581\u13a4\u13b8\u13c9\u13d4\u13c1": 4465,
    "\u2581\u13a0\u13c6\u13db\u13c5\u13a2\u13cd\u13d7": 4466,
    "\u13e1\u13d4\u13c2": 4467,
    "\u2581\u13a2\u13e7\u13d6": 4468,
    "\u2581\u13d7\u13e3\u13b3\u13cf": 4469,
    "\u2581\u13d7\u13ad\u13be\u13ec": 4470,
    "\u13f2\u13b5\u13cd\u13d7\u13f1": 4471,
    "\u2581\u13eb\u13c2\u13ea\u13cf": 4472,
    "\u2581\u13ec\u13e4": 4473,
    "\u2581\u13e6\u13a8\u13e5": 4474,
    "\u2581\u13da\u13c4\u13cc\u13db": 4475,
    "\u2581\u13a4\u13d3\u13d1\u13f0\u13db": 4476,
    "\u2581\u13d7\u13a6\u13aa\u13d9\u13d7": 4477,
    "\u2581\u13af\u13cd\u13aa\u13b5": 4478,
    "\u2581\u13aa\u13d2\u13c5": 4479,
    "\u13eb\u13db": 4480,
    "\u2581\u13d3\u13c2\u13f4\u13ac\u13a2": 4481,
    "\u2581\u13e3\u13d3\u13b8\u13a9": 4482,
    "\u2581\u13e5\u13a6\u13da\u13ad": 4483,
    "\u2581\u13d3\u13c2\u13f4\u13a8\u13cd\u13d7": 4484,
    "\u2581\u13ac\u13d4\u13f2\u13ce\u13ad": 4485,
    "\u2581\u13a4\u13d9\u13b3\u13c5\u13cd\u13d7": 4486,
    "\u2581\u13d3\u13c2\u13c4\u13d9\u13ac\u13a2": 4487,
    "\u2581\u13da\u13da\u13d3\u13db\u13a2": 4488,
    "\u2581\u13a0\u13a8\u13ef": 4489,
    "\u2581\u13a2\u13e4\u13c5\u13cd\u13d7\u13f1": 4490,
    "\u2581\u13da\u13d5\u13f2\u13c1": 4491,
    "\u2581\u13a0\u13c4\u13ec\u13a9\u13af": 4492,
    "\u2581\u13d3\u13e5\u13c1\u13b5": 4493,
    "\u2581\u13d7\u13e3\u13b3\u13cf\u13d5\u13c2": 4494,
    "\u2581\u13a4\u13ec\u13d2\u13c5": 4495,
    "\u2581\u13a1\u13c8\u13b3": 4496,
    "\u2581\u13e4\u13b5\u13aa": 4497,
    "\u2581\u13d9\u13b3\u13e7\u13a6": 4498,
    "\u2581\u13ed\u13a9\u13b6\u13eb\u13ce": 4499,
    "\u2581\u13c5\u13d3\u13f0": 4500,
    "\u2581\u13ed\u13b3\u13a9\u13d2": 4501,
    "\u2581\u13e7\u13f2\u13af\u13cd\u13d7\u13f1": 4502,
    "\u2581\u13da\u13ec\u13c1\u13d4\u13c5\u13a9": 4503,
    "\u2581\u13a2\u13e8\u13f2\u13ea\u13b3\u13c1\u13ad": 4504,
    "\u13cd\u13a6\u13a2\u13cd\u13d7": 4505,
    "\u2581\u13a0\u13c2\u13a9\u13be": 4506,
    "\u2581\u13a4\u13b5\u13e6\u13af\u13db": 4507,
    "\u2581\u13e7\u13b8\u13eb\u13cd\u13d3\u13c1\u13b8\u13af": 4508,
    "\u2581\u13c7\u13b5\u13cf": 4509,
    "\u2581\u13c5\u13db\u13db\u13c1\u13b5": 4510,
    "\u2581\u13d5\u13af\u13a7\u13c5": 4511,
    "\u2581\u13be\u13cf": 4512,
    "\u2581\u13a4\u13c5\u13ea": 4513,
    "\u2581\u13e7\u13ec\u13ea\u13b3\u13c5": 4514,
    "\u2581\u13d7\u13a6\u13c1\u13b2": 4515,
    "\u2581\u13da\u13d8\u13c3\u13ae\u13b4\u13a2": 4516,
    "\u2581\u13eb\u13c4\u13ea\u13ce\u13a2": 4517,
    "\u2581\u13e3\u13d4\u13b3\u13ec\u13af\u13cd\u13d7": 4518,
    "\u2581\u13a2\u13ef\u13d3\u13c5\u13d6\u13d7": 4519,
    "\u2581\u13ac\u13ef\u13b5\u13a1\u13b5\u13e4": 4520,
    "\u2581\u13da\u13cf\u13d4\u13db": 4521,
    "\u2581\u13a2\u13e5\u13c1\u13e8": 4522,
    "\u2581\u13a0\u13c8\u13b7": 4523,
    "\u2581\u13a0\u13cc\u13b3\u13d9\u13d7": 4524,
    "\u2581\u13c2\u13e5\u13ea\u13cd\u13ac": 4525,
    "\u2581\u13e7\u13a7\u13ad\u13f2": 4526,
    "\u13c4\u13cd\u13d7": 4527,
    "\u2581\u13a1\u13cd\u13a6\u13c2\u13f3": 4528,
    "\u2581\u13a7\u13c1\u13cd\u13ac": 4529,
    "\u2581\u13a4\u13b5\u13e8\u13d3\u13c6\u13d3": 4530,
    "\u2581\u13b4\u13bb\u13a9": 4531,
    "\u2581\u13e7\u13be\u13c1\u13b3\u13c5\u13af": 4532,
    "\u2581\u13a2\u13e3\u13b5\u13cd\u13d3\u13f4\u13d7\u13f1": 4533,
    "\u2581\u13a0\u13c1\u13d9\u13ad": 4534,
    "\u2581\u13a2\u13e4\u13b5\u13ad": 4535,
    "\u2581\u13e3\u13d3\u13c5\u13db\u13a2": 4536,
    "\u2581\u13a2\u13e8\u13c1\u13d7": 4537,
    "\u2581\u13a0\u13c6\u13db\u13c1\u13d7\u13f1": 4538,
    "\u2581\u13a0\u13c6\u13d3\u13c5\u13d6\u13db": 4539,
    "\u2581\u13a4\u13f2\u13b1\u13ce\u13ae\u13cd\u13d7": 4540,
    "\u2581\u13d1\u13d3\u13b5\u13e7\u13c8": 4541,
    "\u13d3\u13b4\u13d2": 4542,
    "\u2581\u13a4\u13ec\u13ea\u13b3\u13c5\u13a9": 4543,
    "\u2581\u13a0\u13d3\u13ac\u13bf": 4544,
    "-\u201c": 4545,
    "\u2581\u13a0\u13a6\u13d9\u13b5": 4546,
    "\u2581\u13a6\u13f0\u13b5\u13cd\u13d7": 4547,
    "\u2581\u13e3\u13cd\u13c6": 4548,
    "\u2581\u13a4\u13c3\u13ea\u13b3\u13c5": 4549,
    "\u2581\u13a0\u13c2\u13cd\u13a6\u13f0\u13ac\u13cd\u13d3": 4550,
    "\u2581\u13a0\u13eb\u13cc\u13c5": 4551,
    "\u2581\u13a0\u13c2\u13a6\u13d8\u13ef": 4552,
    "\u2581\u13a0\u13e4\u13cd\u13d9\u13a9\u13af": 4553,
    "\u2581\u13a6\u13aa\u13b5\u13cd\u13d7": 4554,
    "\u2581\u13d7\u13e5\u13a7\u13bf\u13e9\u13db\u13cd\u13d7\u13f1": 4555,
    "\u2581\u13a0\u13ba": 4556,
    "\u2581\u13a4\u13db\u13a6\u13be": 4557,
    "\u2581\u13da\u13ed\u13aa\u13d4\u13c5": 4558,
    "\u2581\u13da\u13ea\u13f4": 4559,
    "\u2581\u13a4\u13ec\u13b3": 4560,
    "\u2581\u13a4\u13c1\u13c5\u13d2\u13a9": 4561,
    "\u2581\u13d3\u13be\u13e0\u13f1\u13b2": 4562,
    "\u2581\u13a4\u13e9\u13c2\u13a6\u13b8\u13a2": 4563,
    "\u2581\u13f3\u13ea\u13ad": 4564,
    "\u2581\u13a4\u13be\u13c4\u13aa\u13e5\u13b8": 4565,
    "\u13a9\u13be\u13dd\u13a2": 4566,
    "\u2581\u13f1\u13e5\u13cf\u13be": 4567,
    "\u2581\u13a4\u13cd\u13c6\u13c2\u13aa\u13d4\u13c1\u13a2": 4568,
    "\u2581\u13a4\u13c2\u13be\u13a5": 4569,
    "\u2581\u13a4\u13c2\u13cd\u13a6\u13b4\u13a2": 4570,
    "\u2581\u13a6\u13c3\u13af\u13b5\u13d9": 4571,
    "\u2581\u13a4\u13ea\u13d9\u13b4\u13a2": 4572,
    "\u2581\u13a0\u13cb\u13d4\u13c5\u13af": 4573,
    "\u2581\u13a2\u13f3\u13e9\u13ac\u13d7": 4574,
    "\u2581\u13d7\u13ab\u13cd\u13d9\u13cd\u13d7\u13f1": 4575,
    "\u2581\u13a4\u13c2\u13c1\u13c9\u13e4": 4576,
    "\u2581\u13ad\u13df\u13c2\u13ac\u13c1": 4577,
    "\u2581\u13be\u13e5\u13ea\u13ce\u13b4\u13a2": 4578,
    "\u2581\u13a2\u13e3\u13db\u13c1\u13d7": 4579,
    "\u2581\u13a4\u13a6\u13b9": 4580,
    "\u2581\u13a4\u13c2\u13c3\u13ae\u13d7\u13f1": 4581,
    "\u2581\u13f1\u13c5\u13a6": 4582,
    "\u2581\u13a2\u13f3\u13ea\u13cd\u13d7": 4583,
    "\u2581\u13e7\u13be\u13db\u13be": 4584,
    "\u2581\u13d3\u13a7\u13c1": 4585,
    "\u2581\u13c2\u13e8\u13c1\u13b2": 4586,
    "\u2581\u13ac\u13e9\u13cd\u13a6\u13a9": 4587,
    "\u2581\u13be\u13e5\u13a4\u13cd\u13d5\u13ce\u13b8\u13be": 4588,
    "\u13e5\u13a4\u13cd\u13d5\u13ce\u13b8\u13be": 4589,
    "\u13c2\u13b4": 4590,
    "\u2581\u13f1\u13c2\u13a6\u13a9": 4591,
    "\u2581\u13d7\u13e5\u13c1\u13df\u13f4": 4592,
    "\u2581\u13a4\u13d5\u13d4\u13c5\u13af": 4593,
    "\u13c1\u13c9\u13e3\u13d8": 4594,
    "\u2581\u13a4\u13db\u13c5\u13d7\u13a6\u13b3\u13eb\u13a2\u13cd\u13d7\u13f1": 4595,
    "\u13e9\u13db\u13b2\u13cd\u13d7\u13f1": 4596,
    "\u2581\u13a4\u13b5\u13cd\u13aa\u13b8\u13d4\u13c5\u13af": 4597,
    "\u13f4\u13b5\u13b8": 4598,
    "\u2581\u13e4\u13e3\u13a7\u13c3\u13d7": 4599,
    "\u2581\u13a0\u13cd\u13d5\u13b5\u13cd\u13a9": 4600,
    "\u2581\u13a4\u13c2\u13da\u13b2\u13a2": 4601,
    "\u2581\u13e5\u13c4\u13cd\u13db": 4602,
    "\u2581\u13a2\u13e8\u13d9\u13d7\u13f1": 4603,
    "\u2581\u13e3\u13be\u13eb\u13f1": 4604,
    "\u2581\u13a0\u13a9\u13b7\u13e4\u13b8\u13a9": 4605,
    "\u2581\u13a4\u13be\u13c5\u13d7\u13f1": 4606,
    "\u2581\u13a2\u13e5\u13c1\u13d7": 4607,
    "\u2581\u13e5\u13ac\u13e9": 4608,
    "\u13b5\u13d6\u13b8\u13c2\u13cd\u13d7": 4609,
    "\u2581\u13a2\u13e3\u13c1\u13b3\u13c5\u13af": 4610,
    "\u2581\u13a6\u13c1\u13e5\u13f1": 4611,
    "\u2581\u13a4\u13c2\u13f0\u13b8\u13af": 4612,
    "\u2581\u13ed\u13d3\u13d2\u13cd\u13d4\u13c1": 4613,
    "\u2581\u13a4\u13f4\u13b8\u13a9": 4614,
    "\u2581\u13ed\u13d3\u13aa\u13be\u13db\u13db": 4615,
    "\u2581\u13a4\u13a6\u13d4\u13b2\u13ce": 4616,
    "\u2581\u13cd\u13a6\u13f0\u13ac\u13cd\u13d4": 4617,
    "\u2581\u13a4\u13c1\u13dd\u13c5\u13af": 4618,
    "\u2581\u13b1\u13c2\u13b7\u13e4": 4619,
    "\u2581\u13a4\u13e6\u13cd\u13d7": 4620,
    "\u2581\u13da\u13c3\u13c1\u13b4": 4621,
    "\u2581\u13af\u13c4\u13aa\u13a2": 4622,
    "\u2581\u13a6\u13ac\u13e9\u13d0\u13e2": 4623,
    "\u2581\u13a1\u13e5\u13c1\u13b8\u13af": 4624,
    "\u2581\u13a3\u13a8\u13c5\u13d2": 4625,
    "\u2581\u13c2\u13a8\u13e5\u13ea\u13ce\u13b8": 4626,
    "\u2581\u13d7\u13aa\u13e9\u13db\u13d7": 4627,
    "\u2581\u13a0\u13c2\u13a9\u13a6\u13a8": 4628,
    "\u2581\u13e7\u13be\u13cd\u13d7\u13a6": 4629,
    "\u2581\u13a4\u13be\u13d3\u13df\u13cc\u13c5": 4630,
    "\u2581\u13e9\u13a6\u13db\u13a2": 4631,
    "\u2581\u13a0\u13be\u13d7\u13cd\u13ac": 4632,
    "\u2581\u13a4\u13be\u13c4\u13aa\u13eb\u13cd\u13d7\u13f1": 4633,
    "\u2581\u13a4\u13a9\u13b5": 4634,
    "\u2581\u13a4\u13d4\u13ea\u13d9\u13c1\u13a2": 4635,
    "\u2581\u13a4\u13cd\u13d5\u13b8\u13d7\u13f1": 4636,
    "\u2581\u13a0\u13b3\u13d1\u13b6": 4637,
    "\u2581\u13d3\u13aa": 4638,
    "\u2581\u13a2\u13d3\u13d9\u13b4\u13b0\u13af\u13cd\u13d7": 4639,
    "\u13d8\u13c1\u13d2\u13ad": 4640,
    "\u2581\u13a0\u13e9\u13db\u13d7": 4641,
    "\u2581\u13a0\u13a6\u13c5\u13a9": 4642,
    "\u2581\u13a4\u13c5\u13d9\u13d7": 4643,
    "\u2581\u13a4\u13cd\u13a6\u13e4": 4644,
    "\u2581\u13a4\u13cd\u13da\u13c1": 4645,
    "\u2581\u13cc\u13bb": 4646,
    "\u2581\u13a0\u13a9\u13aa\u13e9\u13db\u13d7\u13f1": 4647,
    "\u13ec\u13c1\u13d4\u13c1": 4648,
    "\u2581\u13a5\u13e5": 4649,
    "\u2581\u13e7\u13ea\u13e5\u13db\u13af": 4650,
    "\u2581\u13d5\u13a6\u13a7\u13b2\u13a9": 4651,
    "\u2581\u13b9\u13b5": 4652,
    "\u2581\u13a4\u13ec\u13e2\u13c1\u13a2": 4653,
    "\u2581\u13a2\u13be\u13cf": 4654,
    "\u2581\u13a4\u13c2\u13f4\u13d7": 4655,
    "\u2581\u13e7\u13d3\u13b4\u13c1\u13a2": 4656,
    "\u2581\u13d3\u13e5\u13c2": 4657,
    "\u2581\u13a6\u13c1\u13ae\u13a2": 4658,
    "\u13b4\u13c1\u13af": 4659,
    "\u2581\u13e5\u13c5\u13b5": 4660,
    "\u2581\u13a4\u13cd\u13d3\u13e9\u13d7\u13d9\u13af": 4661,
    "\u2581\u13bc": 4662,
    "\u2581\u13d3\u13cd\u13db": 4663,
    "\u2581\u13a2\u13a8\u13e3\u13db\u13c1\u13d7": 4664,
    "\u13ce\u13d7\u13f1": 4665,
    "\u2581\u13a2\u13e3\u13b4\u13c2\u13d9\u13b2": 4666,
    "\u2581\u13a6\u13c6\u13b5": 4667,
    "\u2581\u13a0\u13a9\u13c3\u13ae\u13b8": 4668,
    "\u2581\u13a4\u13b5\u13f0\u13d4\u13c1\u13a2": 4669,
    "\u2581\u13a4\u13c4\u13ec\u13cd\u13d7": 4670,
    "\u13cd\u13d7\u13f0\u13d7\u13ad": 4671,
    "\u2581\u13a4\u13be\u13b4\u13c5\u13b2": 4672,
    "\u2581\u13d5\u13aa\u13ea\u13b8\u13a9": 4673,
    "\u13c2\u13ec\u13c2\u13af\u13cd\u13d7": 4674,
    "\u2581\u13a3\u13a9\u13be\u13b5\u13aa": 4675,
    "\u2581\u13ed\u13f4\u13b8\u13a9": 4676,
    "\u2581\u13c2\u13e3\u13db\u13c1\u13b2\u13a2": 4677,
    "\u2581\u13d7\u13a6\u13ab\u13cd\u13db\u13d7\u13f1": 4678,
    "\u2581\u13a4\u13b6\u13a8\u13d2\u13a2": 4679,
    "\u2581\u13a4\u13c4\u13b8": 4680,
    "\u2581\u13a0\u13eb\u13d2\u13af": 4681,
    "\u2581\u13e7\u13a6": 4682,
    "\u2581\u13a4\u13f0\u13ac": 4683,
    "\u2581\u13e7\u13c3\u13b8": 4684,
    "\u2581\u13e9\u13a9\u13a6": 4685,
    "\u2581\u13a4\u13ec\u13e2\u13c5\u13a2": 4686,
    "\u2581\u13ed\u13b7\u13e4\u13b4\u13a2": 4687,
    "\u13e5\u13c1\u13a2\u13cd\u13d7\u13ad": 4688,
    "\u2581\u13d3\u13df\u13b6\u13cd\u13db\u13a2": 4689,
    "\u2581\u13a4\u13cd\u13d3\u13a6\u13b8\u13a2": 4690,
    "\u2581\u13a6\u13b5\u13b7\u13a8\u13cd\u13d7": 4691,
    "\u2581\u13a0\u13c7\u13b5\u13d2\u13a9": 4692,
    "\u13d5\u13aa\u13a2": 4693,
    "\u2581\u13e5\u13c2\u13a8\u13ac\u13c1": 4694,
    "ill": 4695,
    "\u2581\u13a7\u13c3\u13ae\u13cd\u13ac\u13a9": 4696,
    "\u2581\u13c2\u13d7\u13a8": 4697,
    "\u2581\u13f1\u13cd\u13db": 4698,
    "\u13a7\u13b8": 4699,
    "\u2581\u13a4\u13ec\u13ad": 4700,
    "\u2581\u13a4\u13c2\u13f4\u13ae\u13a2": 4701,
    "\u2581\u13a4\u13ec\u13ce\u13b4\u13a2": 4702,
    "\u2581\u13e6\u13a8": 4703,
    "\u13b5\u13d3\u13cd\u13d4\u13c5": 4704,
    "\u2581\u13ce\u13b3\u13a9": 4705,
    "\u2581\u13a6\u13f2\u13df\u13a8": 4706,
    "\u13b6\u13b8\u13d7": 4707,
    "\u2581\u13e7\u13e9\u13ab\u13d4\u13c5\u13d2\u13a2": 4708,
    "\u13e2\u13c2": 4709,
    "\u13d3\u13c5\u13a1\u13ae\u13cd\u13d7": 4710,
    "\u13d8\u13f1": 4711,
    "\u13a0\u13a9\u13cf\u13d9\u13af": 4712,
    "\u2581\u13a4\u13be\u13d9\u13b4\u13b0\u13d2\u13a9": 4713,
    "\u13d5\u13b6\u13b0\u13cc": 4714,
    "\u13e9\u13d4": 4715,
    "\u2581\u13ad\u13d5\u13ec": 4716,
    "\u13b5\u13ce\u13b2": 4717,
    "\u13ef\u13ea\u13a2\u13cd\u13d7": 4718,
    "\u2581\u13ac\u13e9\u13a6": 4719,
    "\u2581\u13da\u13c2\u13aa\u13b2": 4720,
    "\u2581\u13af\u13cc": 4721,
    "\u2581\u13e3\u13a7\u13db\u13a2": 4722,
    "\u2581\u13be\u13c6\u13db\u13c1\u13b8\u13a2": 4723,
    "\u2581\u13ac\u13e9\u13b7\u13e4\u13b4\u13a2": 4724,
    "\u13da\u13b5\u13cd\u13aa": 4725,
    "\u13db\u13db\u13be": 4726,
    "\u2581\u13a1\u13d9\u13b2\u13a9": 4727,
    "\u2581\u13a8\u13d9\u13b2\u13a2": 4728,
    "\u13a6\u13b6\u13a8\u13d2": 4729,
    "\u2581\u13a0\u13c2\u13c1\u13ac\u13a2": 4730,
    "\u2581\u13be\u13db\u13c1\u13b2\u13a2": 4731,
    "\u13da\u13d3\u13b4\u13cd\u13d7\u13f1": 4732,
    "\u2581\u13e4\u13cf": 4733,
    "\u2581\u13a6\u13b5\u13e6\u13d9\u13d7": 4734,
    "\u13b3\u13d7\u13cd\u13ac": 4735,
    "\u2581\u13a6\u13c1\u13af": 4736,
    "\u2581\u13a0\u13e5\u13be": 4737,
    "\u2581\u13ef\u13a9\u13f0\u13b8": 4738,
    "\u2581\u13cf\u13a6": 4739,
    "\u2581\u13a0\u13a9\u13b2": 4740,
    "\u2581\u13a2\u13cc": 4741,
    "\u2581\u13a4\u13c2\u13be": 4742,
    "\u2581\u13be\u13db\u13a6": 4743,
    "\u2581\u13a2\u13e5\u13b2\u13a2": 4744,
    "\u2581\u13a4\u13ea\u13ad": 4745,
    "\u2581\u13e5\u13b3": 4746,
    "\u2581\u13d3\u13eb\u13d2\u13a2": 4747,
    "\u2581\u13e7\u13be\u13d7\u13d4\u13cd\u13d7": 4748,
    "\u2581\u13e3\u13cd\u13a6\u13c5\u13e8": 4749,
    "\u13b5\u13cd\u13aa\u13b8\u13d9\u13d7": 4750,
    "\u2581\u13a2\u13e2": 4751,
    "\u2581\u13a0\u13a2\u13ce": 4752,
    "\u13d9\u13a1\u13cd\u13d7": 4753,
    "\u2581\u13da\u13b7\u13ac": 4754,
    "\u2581\u13a1\u13b3\u13c2\u13ac\u13a2": 4755,
    "\u13a9\u13f3\u13cd\u13c8\u13db": 4756,
    "\u13cd\u13da\u13df\u13cd\u13d7": 4757,
    "\u2581\u13d9\u13d3\u13b8\u13a2": 4758,
    "\u2581\u13a4\u13c4\u13ea": 4759,
    "ha": 4760,
    "\u2581\u13d5\u13a8\u13d2": 4761,
    "\u2581\u13d5\u13af\u13c1\u13b8": 4762,
    "\u2581\u13e5\u13a9\u13b5\u13f2\u13ac": 4763,
    "\u2581\u13a4\u13da\u13b8\u13b2": 4764,
    "\u2581\u13a0\u13be\u13a2\u13d2\u13a2": 4765,
    "\u2581\u13a0\u13a6\u13b5\u13cd\u13aa\u13b8\u13d3\u13c1\u13b8": 4766,
    "\u2581\u13c1\u13e3": 4767,
    "\u13f1\u13c6": 4768,
    "\u2581\u13a4\u13d5\u13b8": 4769,
    "\u13cc\u13db\u13d7": 4770,
    "\u2581\u13a4\u13c1\u13b3\u13c5": 4771,
    "\u2581\u13c4\u13b3": 4772,
    "\u13f4\u13ae\u13a2": 4773,
    "\u13b5\u13cd\u13d7\u13cd\u13a9": 4774,
    "\u2581\u13d7\u13df": 4775,
    "\u2581\u13d7\u13cd\u13a9\u13a7\u13c1": 4776,
    "\u13eb\u13cd\u13a9": 4777,
    "\u13a7\u13be": 4778,
[...]
